<unk>	0
<NL>	0
、	-2.62463
。	-3.17359
▁	-3.4461
の	-3.54526
は	-4.10198
が	-4.24122
に	-4.39708
を	-4.42095
と	-4.55017
▁「	-4.85983
」	-4.91347
も	-5.02192
で	-5.2042
から	-5.47148
その	-5.8303
な	-5.86057
し	-5.91438
か	-5.91637
)	-6.04655
や	-6.06683
して	-6.08595
した	-6.12684
お	-6.17094
る	-6.22266
て	-6.22904
(	-6.29496
た	-6.32703
「	-6.32813
この	-6.33378
・	-6.36742
へ	-6.42413
である	-6.45269
する	-6.47106
だ	-6.49216
年	-6.5775
▁」	-6.60637
には	-6.60838
――	-6.61137
い	-6.65148
よ	-6.65611
り	-6.72974
という	-6.73712
一	-6.74224
大	-6.86007
いた	-6.88255
って	-6.90947
人	-6.91311
でも	-6.95123
ら	-6.96034
また	-6.96585
......	-7.0036
さ	-7.03701
として	-7.06416
ね	-7.0695
まで	-7.12545
く	-7.12603
月	-7.12891
ない	-7.16487
日	-7.16927
ある	-7.16947
き	-7.17139
す	-7.19616
った	-7.20235
』	-7.23433
もう	-7.24287
であった	-7.25633
私は	-7.27403
にも	-7.28315
では	-7.2863
!	-7.2944
▁そして	-7.31071
御	-7.31123
▁その	-7.34114
いる	-7.34384
ながら	-7.36115
手	-7.36576
見	-7.37026
山	-7.4019
のである	-7.40834
三	-7.41886
み	-7.42266
より	-7.43423
ました	-7.44636
している	-7.44829
つて	-7.45256
時	-7.45593
う	-7.47028
▁――	-7.47728
んだ	-7.49239
です	-7.49797
二	-7.50068
上	-7.50867
物	-7.51085
?」	-7.511
こと	-7.52096
▁この	-7.52492
だった	-7.53249
小	-7.53616
▁(	-7.53873
者	-7.53952
▁しかし	-7.53972
あの	-7.54057
子	-7.54742
ので	-7.54956
ように	-7.55038
がある	-7.55801
、「	-7.56322
自分の	-7.56985
わ	-7.57791
なり	-7.58545
された	-7.59353
事	-7.60794
?	-7.61069
中	-7.61677
それは	-7.63654
▁と	-7.63991
それを	-7.65604
的	-7.66526
さん	-7.68309
つた	-7.68325
など	-7.69778
よく	-7.71106
『	-7.71106
なる	-7.71294
らしい	-7.71578
下	-7.71977
ような	-7.72282
本	-7.72302
あ	-7.72886
ス	-7.73444
ア	-7.73849
家	-7.74088
心	-7.74479
そう	-7.74928
▁私は	-7.75198
ひ	-7.75357
ことを	-7.75959
▁-	-7.76016
▁『	-7.76346
彼は	-7.76422
出	-7.76539
なら	-7.7726
いて	-7.78173
私の	-7.79327
ぬ	-7.79519
.	-7.79603
のだ	-7.79683
のです	-7.79963
気	-7.80091
水	-7.80458
:	-7.807
ほど	-7.80718
もの	-7.80904
生	-7.81031
といふ	-7.81153
ッ	-7.81536
のように	-7.82511
とは	-7.82817
ふ	-7.83051
長	-7.83742
まだ	-7.84352
目	-7.84596
ばかり	-7.84658
女	-7.8466
人の	-7.8528
今	-7.85721
いい	-7.85838
名	-7.87092
む	-7.87803
つ	-7.87928
ず	-7.8846
ま	-7.89521
木	-7.90659
前	-7.91668
え	-7.91917
......」	-7.92544
ことは	-7.93336
とも	-7.9356
彼の	-7.94034
ん	-7.94101
何	-7.94758
道	-7.94797
川	-7.95038
▁彼は	-7.95302
何か	-7.95455
金	-7.96378
それが	-7.96491
ノ	-7.96648
なかった	-7.96901
行	-7.9693
後	-7.96985
▁......	-7.97562
又	-7.9829
していた	-7.98554
ば	-7.98664
田	-8.00218
不	-8.00971
め	-8.0141
国	-8.01443
ト	-8.01481
来た	-8.01509
になる	-8.01576
的な	-8.01963
になって	-8.02075
ぞ	-8.02518
無	-8.02529
口	-8.02779
!」	-8.03025
っている	-8.03239
新	-8.04073
町	-8.04748
1	-8.06917
ご	-8.07034
なく	-8.07413
ねえ	-8.07645
白	-8.07705
それ	-8.07746
ク	-8.08095
▁それは	-8.08409
大きな	-8.08836
んで	-8.0913
分	-8.09618
其	-8.09983
風	-8.09994
の中に	-8.10095
高	-8.10326
君	-8.10512
間	-8.1054
私	-8.11157
神	-8.12023
される	-8.12202
ます	-8.12766
ている	-8.12861
2	-8.13135
せ	-8.13218
平	-8.13344
そんな	-8.1343
石	-8.13668
になった	-8.14197
ただ	-8.1473
こ	-8.1475
あり	-8.14988
ド	-8.15267
村	-8.15593
五	-8.15698
よう	-8.15699
これは	-8.15806
八	-8.16226
にして	-8.16416
によって	-8.17042
られた	-8.17832
数	-8.18392
来	-8.18465
野	-8.18859
法	-8.19229
文	-8.19284
四	-8.19609
立	-8.20125
じゃ	-8.20805
s	-8.21167
所	-8.212
行く	-8.21285
日本	-8.21313
来る	-8.21434
とか	-8.21722
作	-8.22085
ツ	-8.22834
天	-8.22899
方	-8.2311
いや	-8.23837
だから	-8.24252
地	-8.24451
ニ	-8.24455
夜	-8.24514
をして	-8.24559
々	-8.24686
書	-8.24713
たる	-8.25034
だけ	-8.25145
六	-8.25478
イ	-8.25503
身	-8.25513
リ	-8.26461
,	-8.26599
屋	-8.27609
ル	-8.27652
力	-8.2816
カ	-8.28314
内	-8.28395
すぐ	-8.28582
もない	-8.28861
出した	-8.29119
のような	-8.29312
だろう	-8.29766
の上に	-8.29944
人間	-8.30084
話	-8.30346
用	-8.30807
シ	-8.31116
花	-8.31154
ラ	-8.31232
空	-8.3129
ると	-8.3149
居る	-8.31571
馬	-8.31751
男	-8.31782
であろう	-8.32537
少し	-8.3269
ゐる	-8.32927
そして	-8.33136
のか	-8.33305
れば	-8.33381
外	-8.334
3	-8.34073
よりも	-8.35166
され	-8.35237
れ	-8.35312
であり	-8.35648
愛	-8.35896
タ	-8.3658
明	-8.3695
であつた	-8.37537
七	-8.37542
思い	-8.37971
のために	-8.38083
色	-8.38144
相	-8.38197
こう	-8.38251
入	-8.38588
キ	-8.38737
語	-8.38744
土	-8.38771
こんな	-8.39124
先	-8.39346
島	-8.40055
会	-8.40104
此	-8.40135
家の	-8.4016
ど	-8.40192
一つ	-8.40474
っ	-8.40507
け	-8.40538
でしょう	-8.4079
コ	-8.41045
これ	-8.4109
マ	-8.41367
重	-8.41384
光	-8.41495
言	-8.41737
来て	-8.41874
ところ	-8.42007
海	-8.42373
それから	-8.42418
立ち	-8.42482
これを	-8.42617
あった	-8.43248
とき	-8.43309
人が	-8.43708
▁また	-8.43859
原	-8.43865
市	-8.43913
古	-8.44363
合	-8.44363
ではない	-8.4454
美	-8.44604
代	-8.44666
じ	-8.45115
通	-8.45403
を見	-8.45473
されて	-8.457
出して	-8.46047
前に	-8.46068
有	-8.46071
いった	-8.46107
頭	-8.46383
半	-8.46796
ナ	-8.46854
ち	-8.46942
眼	-8.4713
通り	-8.47754
性	-8.4844
ハ	-8.48544
学	-8.48636
ため	-8.48794
だが	-8.49164
元	-8.49254
眼を	-8.49749
▁それから	-8.49807
ことが	-8.50025
エ	-8.50334
人は	-8.50339
っていた	-8.50792
面	-8.518
くる	-8.51886
フ	-8.5192
足	-8.52632
事を	-8.52834
見た	-8.52884
歌	-8.52972
正	-8.53197
位	-8.53353
オ	-8.53381
しかし	-8.53636
らしく	-8.53704
安	-8.53915
私が	-8.53956
があった	-8.54174
取り	-8.54235
それに	-8.54254
きた	-8.54284
戦	-8.54286
でした	-8.54524
ものは	-8.54605
けれど	-8.54673
死	-8.54686
さえ	-8.54859
船	-8.5575
火	-8.55868
について	-8.55873
草	-8.55974
部	-8.56122
引	-8.56245
ろ	-8.56365
東	-8.56464
レ	-8.56708
一人	-8.56725
同じ	-8.56763
はない	-8.57005
ウ	-8.57008
のみ	-8.57021
もなく	-8.57248
門	-8.57258
ていた	-8.57407
西	-8.57413
居	-8.57609
_	-8.57697
▁お	-8.58179
着	-8.58347
顔	-8.58495
僕は	-8.5852
手を	-8.58591
かな	-8.58805
様	-8.58807
▁すると	-8.58826
顔を	-8.5886
そ	-8.58932
吉	-8.58963
サ	-8.58998
真	-8.59221
声	-8.5928
ならば	-8.59315
ロ	-8.59529
流	-8.5961
最も	-8.59718
なかつた	-8.59924
られて	-8.5995
ものである	-8.59965
ぎ	-8.60144
主	-8.60474
直	-8.60683
横	-8.60921
考え	-8.61137
と云う	-8.61475
こそ	-8.61575
取	-8.62157
ために	-8.62247
のある	-8.62382
-	-8.62658
成	-8.63026
どう	-8.63261
みんな	-8.63368
よい	-8.63654
▁だが	-8.63767
公	-8.63807
老	-8.63922
音	-8.63952
▁the	-8.64187
黒	-8.64222
んです	-8.64315
松	-8.64554
やうに	-8.64694
ン	-8.64883
▁=	-8.64906
の方へ	-8.65077
――」	-8.65114
北	-8.6537
つき	-8.65419
ガ	-8.65503
南	-8.6552
的に	-8.65869
春	-8.66112
られる	-8.6621
ものを	-8.66419
けれども	-8.66423
生活	-8.66642
だって	-8.66839
▁これは	-8.6687
ム	-8.66894
まあ	-8.67254
すると	-8.67279
ズ	-8.67335
回	-8.67525
と思う	-8.6761
清	-8.67829
軍	-8.68128
ミ	-8.68139
朝	-8.68259
チ	-8.68605
寺	-8.68606
ぐ	-8.6866
赤	-8.68847
全く	-8.68916
皆	-8.68922
点	-8.69041
先生	-8.69111
ゐた	-8.69154
形	-8.69158
さう	-8.69239
等	-8.69252
さんは	-8.69357
4	-8.69668
雪	-8.69691
寝	-8.69993
青	-8.70037
をした	-8.70047
中に	-8.70224
たい	-8.70392
世	-8.70406
同	-8.70492
ちょっと	-8.70562
一つの	-8.7058
早く	-8.70918
にある	-8.71161
ジ	-8.71232
見る	-8.71348
どんな	-8.71388
ゆく	-8.7171
つく	-8.71752
君は	-8.71808
玉	-8.72041
ぶ	-8.72062
しながら	-8.72327
やうな	-8.72606
いま	-8.72712
だつた	-8.72888
悪	-8.73056
ネ	-8.73344
十	-8.73439
行った	-8.73463
しい	-8.73559
において	-8.7366
氏	-8.73701
されている	-8.73766
しない	-8.73784
やがて	-8.74001
さま	-8.74047
岩	-8.74086
論	-8.74207
丸	-8.74227
られ	-8.74481
母	-8.74616
親	-8.74627
城	-8.74671
白い	-8.7473
モ	-8.74756
なお	-8.74789
そこに	-8.74873
多	-8.75309
機	-8.75311
▁そこで	-8.75438
出す	-8.75656
あまり	-8.75706
王	-8.75859
▁a	-8.76036
波	-8.76118
義	-8.76157
決して	-8.76318
曲	-8.76326
子は	-8.76384
いう	-8.76635
ものが	-8.76698
他の	-8.76736
発	-8.77546
そういう	-8.77662
酒	-8.7768
今日	-8.77711
助	-8.7869
いつも	-8.78747
千	-8.78808
場	-8.79236
グ	-8.79268
品	-8.79294
してゐる	-8.79404
二人	-8.79613
5	-8.79696
ああ	-8.79957
日本の	-8.79969
ダ	-8.80001
まるで	-8.80048
急に	-8.8007
女の	-8.80238
なんか	-8.80427
しました	-8.80429
つてゐる	-8.80592
だと	-8.80889
和	-8.80917
谷	-8.81003
のない	-8.81364
メ	-8.81576
に対する	-8.81658
達	-8.81762
をもって	-8.8214
まい	-8.82166
に対して	-8.8252
かった	-8.82845
時に	-8.82899
小さな	-8.82926
之	-8.83025
しか	-8.83065
ひと	-8.83246
者は	-8.83274
文学	-8.83324
美しい	-8.83572
程	-8.83699
見ると	-8.8384
表	-8.83914
もし	-8.84006
ぜ	-8.84073
ものだ	-8.84146
雲	-8.84177
敵	-8.84342
体	-8.84362
をする	-8.84436
び	-8.84747
定	-8.84859
味	-8.84929
雨	-8.85404
宮	-8.8561
病	-8.85629
どうして	-8.85721
次	-8.85892
若い	-8.85953
兵	-8.86222
両	-8.86366
見て	-8.86448
守	-8.86489
がない	-8.86561
ことに	-8.86579
全	-8.8668
なし	-8.8676
テ	-8.86794
彼	-8.87517
わけ	-8.87591
楽	-8.87862
線	-8.87935
血	-8.87973
夢	-8.88113
やはり	-8.88225
云った	-8.88276
バ	-8.88316
余	-8.88514
出し	-8.88618
役	-8.88627
号	-8.88739
社会	-8.89077
食	-8.89164
まず	-8.89192
自	-8.89218
紙	-8.89332
官	-8.89442
行き	-8.89464
信	-8.89532
のであった	-8.89537
どうも	-8.8959
勝	-8.89737
命	-8.89841
別	-8.89866
室	-8.90065
橋	-8.90242
A	-8.90351
新しい	-8.90381
駅	-8.90388
のこと	-8.90407
画	-8.90455
化	-8.90489
ところで	-8.90625
いました	-8.90832
たり	-8.9095
江	-8.9108
もある	-8.91211
切	-8.9166
伝	-8.91812
ほ	-8.9183
人に	-8.91911
前の	-8.91965
言った	-8.91991
ません	-8.92039
となる	-8.92153
鼻	-8.92199
近	-8.92494
の中で	-8.92564
説	-8.92635
夫	-8.93023
それで	-8.93028
実	-8.93039
車	-8.93181
引き	-8.93288
氣	-8.9335
そうな	-8.93462
万	-8.93535
片	-8.93689
諸	-8.93819
井	-8.93865
客	-8.93982
知	-8.942
▁一	-8.94385
くれ	-8.94452
林	-8.94558
落	-8.94579
君の	-8.94771
と共に	-8.94801
殿	-8.94845
ブ	-8.94949
込んで	-8.95027
世界	-8.95041
人間の	-8.95045
蔵	-8.953
度	-8.95317
上の	-8.95345
になり	-8.9535
のやうに	-8.95433
感	-8.95513
になつて	-8.95616
▁そうして	-8.95739
深い	-8.96043
百	-8.96119
子供	-8.96248
ヤ	-8.96432
方が	-8.96614
子の	-8.96635
当	-8.9699
そのまま	-8.97094
折	-8.97135
師	-8.97141
そうだ	-8.97196
竹	-8.97354
なんて	-8.97629
だよ	-8.97659
れる	-8.97691
詩	-8.9783
者の	-8.97961
番	-8.97961
打	-8.97962
小説	-8.9817
感じ	-8.98295
記	-8.98319
訳	-8.98326
▁ところが	-8.98453
のお	-8.98454
すれば	-8.98498
初	-8.98558
太	-8.98565
首	-8.98665
かけ	-8.98764
ここに	-8.9888
彼女は	-8.98971
連	-8.99103
10	-8.99179
薄	-8.99261
▁それが	-8.99615
S	-8.99734
しく	-8.99738
一日	-8.99758
となり	-8.99826
処	-8.9987
があって	-8.99872
デ	-9.00046
星	-9.00049
教	-9.00061
というのは	-9.00091
小さい	-9.00092
てゐる	-9.00123
頃	-9.00264
宗	-9.00272
一番	-9.00427
いない	-9.00529
若	-9.00599
となった	-9.00859
時代	-9.00897
e	-9.00972
自然	-9.01041
気が	-9.0113
宿	-9.01183
茶	-9.01265
問題	-9.01308
娘	-9.01328
を見て	-9.01348
と云ふ	-9.01591
他	-9.01761
我	-9.01801
うち	-9.01844
友	-9.01915
集	-9.01958
尾	-9.01994
戸	-9.02018
店	-9.02455
の大	-9.02599
かい	-9.02657
起	-9.02767
路	-9.02804
間に	-9.03014
候	-9.0307
関係	-9.03159
造	-9.03322
巻	-9.03436
高い	-9.03523
左	-9.03577
言い	-9.03591
初めて	-9.03602
自分	-9.03828
▁僕は	-9.03911
目を	-9.03957
再び	-9.04106
政	-9.04109
第	-9.0418
例	-9.04188
鳥	-9.04231
徳	-9.04466
好	-9.0457
利	-9.04578
ついて	-9.0464
しまった	-9.04708
物を	-9.04756
そうに	-9.04809
を以て	-9.04845
変	-9.05152
時間	-9.05466
庭	-9.05756
久	-9.05899
奴	-9.05978
犬	-9.05994
秋	-9.06004
ふと	-9.06012
▁in	-9.06034
研究	-9.06092
屋の	-9.06154
日に	-9.06184
まま	-9.06362
父	-9.06377
長い	-9.06447
沢	-9.06528
居た	-9.06564
良	-9.06568
6	-9.06577
9	-9.06748
一度	-9.06768
下さい	-9.06779
さんの	-9.06874
a	-9.07181
▁だから	-9.07283
もっと	-9.0741
書き	-9.07456
もので	-9.07492
ビ	-9.07516
▁けれども	-9.07522
根	-9.07707
僕の	-9.07731
彼女の	-9.07828
米	-9.07938
湯	-9.08009
人を	-9.08223
つい	-9.08285
武	-9.08476
などは	-9.08483
解	-9.08521
縁	-9.08561
社	-9.08561
あれ	-9.08687
さんが	-9.08689
ろう	-9.08754
に於て	-9.08849
為	-9.0891
里	-9.08956
言う	-9.09208
▁ただ	-9.09247
なんだ	-9.09296
時には	-9.0935
つけ	-9.09365
リー	-9.09457
います	-9.09506
強	-9.09615
i	-9.0974
得	-9.09919
鉄	-9.09923
飛び	-9.09932
山の	-9.09939
じゃないか	-9.09954
ころ	-9.10143
耳	-9.1015
二人の	-9.1022
東京	-9.1029
ヒ	-9.103
民	-9.10499
思ひ	-9.10537
せる	-9.10583
持	-9.10793
熱	-9.10809
目に	-9.10848
はい	-9.10849
8	-9.1101
7	-9.11135
士	-9.1117
町の	-9.11207
深く	-9.11263
後に	-9.11265
云う	-9.11272
ですよ	-9.11333
座	-9.11429
まして	-9.11483
何も	-9.11537
非常に	-9.11632
九	-9.11635
といって	-9.11641
だけで	-9.11744
何の	-9.11768
事は	-9.11922
つつ	-9.11947
だらう	-9.11988
セ	-9.12002
行って	-9.12047
事実	-9.12108
ずに	-9.12148
自分が	-9.12261
あって	-9.12377
きて	-9.12459
図	-9.12469
しばらく	-9.12517
字	-9.12586
文化	-9.12609
台	-9.12645
▁それで	-9.1281
身を	-9.12864
節	-9.1289
ではないか	-9.1293
板	-9.13019
あら	-9.13138
があり	-9.13167
あなた	-9.13203
らず	-9.13469
ことがある	-9.13708
入り	-9.13988
観	-9.14
罪	-9.14038
なあ	-9.14075
黒い	-9.14092
角	-9.14205
口を	-9.1425
郡	-9.14256
異	-9.14314
中の	-9.14333
死んだ	-9.14445
樹	-9.14446
させる	-9.14473
ええ	-9.14482
治	-9.14517
持ち	-9.14544
れた	-9.146
息	-9.14747
何を	-9.14794
其の	-9.14849
やら	-9.14862
すぐに	-9.14874
期	-9.15071
ー	-9.15079
の間に	-9.15094
にて	-9.1514
端	-9.15301
肉	-9.15436
とても	-9.15453
ケ	-9.15489
込んだ	-9.1554
場合	-9.15548
による	-9.15733
旅	-9.15829
堂	-9.15857
情	-9.15909
自ら	-9.15911
一寸	-9.15973
権	-9.15987
実に	-9.16045
でない	-9.16251
絵	-9.16259
ゴ	-9.1627
かも知れない	-9.1637
好い	-9.16683
転	-9.16703
ことも	-9.16715
太郎	-9.16811
▁あの	-9.16828
心配	-9.16835
業	-9.16869
遠	-9.16883
ひとり	-9.17004
ですか	-9.17179
上に	-9.17196
広	-9.17223
―	-9.17237
うちに	-9.17402
打ち	-9.17414
なき	-9.17417
昭和	-9.17612
藤	-9.17958
ひどく	-9.18023
私に	-9.18071
みな	-9.1816
ザ	-9.18165
▁彼女は	-9.18199
出て	-9.18335
立って	-9.18394
の下に	-9.1853
▁それに	-9.18588
でございます	-9.186
だけは	-9.186
骨	-9.18634
いって	-9.18801
べ	-9.18834
▁それ	-9.18883
指	-9.18893
早	-9.18898
戦争	-9.18915
親分	-9.19131
仕	-9.19283
者が	-9.19481
此の	-9.19486
源	-9.19563
M	-9.19589
らない	-9.19623
雄	-9.19819
すっかり	-9.19868
言葉	-9.20053
勢	-9.20148
産	-9.2018
切り	-9.20258
河	-9.20277
例の	-9.20391
B	-9.20453
葉	-9.2046
の前に	-9.2047
津	-9.20513
かた	-9.20534
▁もう	-9.20717
であります	-9.20743
見える	-9.20904
更に	-9.20944
常	-9.21
実は	-9.21192
意識	-9.21401
放	-9.21415
出た	-9.21454
時々	-9.2151
以上	-9.21552
第一	-9.21736
薬	-9.21814
スト	-9.21982
げ	-9.22027
われ	-9.22047
これが	-9.22131
あるいは	-9.22141
作品	-9.22146
やる	-9.22152
るように	-9.22238
腹	-9.22294
になつた	-9.22687
プ	-9.22726
或る	-9.22863
仕事	-9.22875
への	-9.22888
遠く	-9.22943
加	-9.22991
かかる	-9.23003
窓	-9.23016
どの	-9.23243
家に	-9.23247
P	-9.23382
彼が	-9.23554
古い	-9.23698
氏の	-9.23704
ッと	-9.23718
聞き	-9.23836
わが	-9.2384
▁of	-9.23843
理	-9.23852
これから	-9.23876
心を	-9.23992
かけて	-9.24168
ソ	-9.24176
つけて	-9.24248
細	-9.24286
のうちに	-9.24306
筆	-9.24398
円	-9.24482
手に	-9.24541
まる	-9.24553
たち	-9.24691
とする	-9.2486
逃げ	-9.24892
みると	-9.24895
意味	-9.24898
はもう	-9.24952
組	-9.2499
毛	-9.25177
しき	-9.25232
頭を	-9.25293
いゝ	-9.25333
矢	-9.25349
限り	-9.25534
色の	-9.25568
急	-9.25571
穴	-9.25605
恋	-9.25725
ゆ	-9.25756
及び	-9.2577
妻	-9.26038
ましょう	-9.26068
おり	-9.26096
のであります	-9.26144
▁』	-9.26154
ヲ	-9.26201
こういう	-9.26262
鬼	-9.26295
立て	-9.26474
破	-9.26591
苦	-9.26641
D	-9.26655
自分は	-9.267
ぼ	-9.26789
兄	-9.26875
させて	-9.26888
冬	-9.26982
旧	-9.27022
露	-9.27092
服	-9.27137
入れ	-9.27218
現	-9.27248
紅	-9.27342
式	-9.27362
経	-9.27393
枝	-9.27457
國	-9.27476
であらう	-9.27479
思う	-9.27624
K	-9.27774
マン	-9.27805
夏	-9.27814
C	-9.27977
魚	-9.28009
運動	-9.28039
落ち	-9.28073
一人の	-9.28156
なかなか	-9.28207
▁今	-9.28238
ボ	-9.28301
パ	-9.28329
善	-9.28367
深	-9.28368
やって	-9.28406
乗	-9.28505
仏	-9.28669
女は	-9.28747
ちゃん	-9.28851
突然	-9.28937
そこで	-9.28977
大学	-9.29001
お前	-9.291
香	-9.29101
知らない	-9.29118
さあ	-9.29209
と思った	-9.29244
かれ	-9.29264
のでした	-9.29284
12	-9.29305
多くの	-9.29359
人物	-9.29428
教育	-9.29488
毎日	-9.2949
であって	-9.29643
たら	-9.29712
思想	-9.29765
おい	-9.29785
裏	-9.29858
種	-9.29891
僕	-9.29916
断	-9.29926
箱	-9.30056
動	-9.3006
らぬ	-9.30108
ワ	-9.30231
使	-9.30262
を見る	-9.30262
になると	-9.30478
意	-9.30489
傷	-9.30526
芸術	-9.30537
関	-9.30751
約	-9.30966
になっている	-9.30999
悪い	-9.31036
しかも	-9.31167
調	-9.31405
なった	-9.31423
男の	-9.31462
立つ	-9.31578
志	-9.31602
かね	-9.31659
坂	-9.31692
大きい	-9.31733
させた	-9.31769
の如く	-9.31803
▁to	-9.31834
反	-9.32013
州	-9.32053
難	-9.32106
総	-9.32114
きっと	-9.32186
幾	-9.32273
かけた	-9.32289
ついた	-9.32298
先に	-9.32416
つてゐた	-9.32447
ものと	-9.3259
▁三	-9.32615
を持って	-9.3268
とした	-9.32682
を見た	-9.32694
ほどの	-9.32727
森	-9.32996
三郎	-9.33291
T	-9.33337
はその	-9.33421
なければならない	-9.33437
めて	-9.33551
の御	-9.33563
影	-9.33589
型	-9.33639
ること	-9.33709
面白い	-9.33728
様に	-9.33806
よし	-9.33823
布	-9.33889
別に	-9.3391
さし	-9.3394
なければ	-9.33972
忠	-9.34038
と同じ	-9.34066
のだが	-9.34189
句	-9.34225
どうしても	-9.34291
/	-9.34293
振り	-9.34333
▁もし	-9.34334
▁それを	-9.34414
多く	-9.34433
の中へ	-9.3454
館	-9.34544
ほとんど	-9.34709
時は	-9.34782
高く	-9.34796
その時	-9.34803
赤い	-9.34817
じっと	-9.3505
すること	-9.35085
いつ	-9.35166
柳	-9.35167
します	-9.35203
かく	-9.35244
院	-9.35309
といった	-9.35377
自分で	-9.3566
学校	-9.35887
自由	-9.35995
n	-9.36152
ぢや	-9.36176
青年	-9.36294
進	-9.36295
次郎	-9.36329
べき	-9.36476
要	-9.3649
心に	-9.36513
岡	-9.36607
江戸	-9.36623
あらゆる	-9.36659
F	-9.36672
のだった	-9.36693
突	-9.3673
素	-9.36776
強い	-9.36776
満	-9.36821
さへ	-9.36918
わたしは	-9.36974
からである	-9.37049
乱	-9.3708
仲	-9.37133
ですから	-9.37154
念	-9.37155
はず	-9.37205
サン	-9.37229
視	-9.37307
やり	-9.37379
ゝ	-9.37411
誰	-9.37417
新聞	-9.37579
いよいよ	-9.37602
云い	-9.37664
あなたは	-9.37676
暗い	-9.37718
向	-9.37761
誰も	-9.37845
区	-9.37846
大きく	-9.37865
実際	-9.37968
交	-9.38015
児	-9.38018
における	-9.38066
付	-9.3812
梅	-9.38124
なにか	-9.38172
音楽	-9.38203
かえって	-9.38295
だした	-9.38331
ものの	-9.38361
すべき	-9.38401
過	-9.38442
11	-9.38528
末	-9.38541
]	-9.38603
私を	-9.38645
由	-9.3874
心の	-9.38863
」「	-9.38894
富	-9.38899
y	-9.38904
史	-9.39016
参	-9.39046
となって	-9.39119
気に	-9.39138
出る	-9.39176
活動	-9.39253
アン	-9.39257
病気	-9.39277
掛	-9.39281
各	-9.39387
羽	-9.39474
と言う	-9.3948
すでに	-9.39482
みた	-9.39557
▁然し	-9.39572
存在	-9.39754
させ	-9.39758
の手	-9.39766
19	-9.3983
特に	-9.39857
そうです	-9.39896
いく	-9.39933
出来	-9.40202
m	-9.40215
あつた	-9.40257
つけた	-9.40313
歩	-9.40323
であるが	-9.4045
今の	-9.40535
▁大	-9.40636
奥	-9.40787
年に	-9.40787
と云って	-9.40848
右	-9.4085
ベ	-9.40875
としては	-9.4095
一種の	-9.41001
t	-9.41051
許	-9.41106
泣き	-9.41191
姿	-9.41218
幸	-9.41292
どんなに	-9.41309
晩	-9.41315
主義	-9.41333
々と	-9.41377
舟	-9.41625
氏は	-9.4173
筋	-9.42002
と思って	-9.42018
極	-9.42134
精神	-9.42186
考へ	-9.42232
笑い	-9.4228
衣	-9.42301
っと	-9.4231
床	-9.42378
在	-9.42404
昔	-9.42462
首を	-9.42467
君が	-9.42513
背	-9.42619
やっと	-9.42734
余り	-9.42756
既に	-9.42763
或は	-9.42825
能	-9.42893
やった	-9.42902
つまり	-9.42909
帰	-9.43004
都	-9.43026
r	-9.43156
その後	-9.43173
張	-9.43191
質	-9.4323
必要	-9.4333
黙って	-9.43351
ものか	-9.43356
くらい	-9.43384
科	-9.43392
刀	-9.43415
保	-9.43425
開	-9.43555
ギ	-9.43674
により	-9.43678
▁二	-9.43746
言って	-9.43803
それも	-9.43814
れて	-9.43915
はまだ	-9.43925
想像	-9.43934
幕	-9.44009
ピ	-9.44076
などの	-9.44086
物語	-9.44163
精	-9.44295
男は	-9.44319
共	-9.44388
明治	-9.44392
恐ろしい	-9.44423
あんな	-9.44441
こんで	-9.44537
はじめて	-9.44555
にしても	-9.44562
壁	-9.44738
したが	-9.44739
すこし	-9.44756
団	-9.4489
置いて	-9.44899
村の	-9.44904
流れ	-9.44981
聞いて	-9.45052
かつた	-9.45115
差	-9.45119
なって	-9.45199
生き	-9.45236
佐	-9.45327
牛	-9.45391
のことを	-9.45549
局	-9.45549
一緒に	-9.45573
盛	-9.45582
ロー	-9.45589
量	-9.45611
の間	-9.45691
京	-9.45703
術	-9.45747
胸	-9.45748
▁これ	-9.45808
即ち	-9.45936
道を	-9.45951
のよ	-9.46004
婦人	-9.46124
たちは	-9.46126
の中	-9.46162
肩	-9.46206
私も	-9.46274
しよう	-9.46351
くれた	-9.46353
などを	-9.4636
今は	-9.46424
映画	-9.46464
かと	-9.46501
売	-9.46528
英	-9.46542
事件	-9.46671
剣	-9.4676
輪	-9.46796
父の	-9.46821
員	-9.46887
ぶり	-9.4689
してゐた	-9.46937
弱	-9.46982
器	-9.46997
房	-9.47116
絶	-9.47149
幸福	-9.47188
さらに	-9.47287
僧	-9.47332
虫	-9.47337
声を	-9.47346
、『	-9.47394
來	-9.47415
りました	-9.47417
近く	-9.47445
気持	-9.47579
かえ	-9.47614
來た	-9.47664
陣	-9.47749
迄	-9.47765
彼を	-9.47792
ではなかった	-9.47824
ける	-9.47877
可	-9.47919
遊	-9.48072
畑	-9.48287
なぜ	-9.48332
声で	-9.4835
毒	-9.48381
りと	-9.48382
すべて	-9.48405
o	-9.48419
とうとう	-9.48427
留	-9.48446
だんだん	-9.48469
なん	-9.48531
渡	-9.48604
女が	-9.4866
版	-9.48706
飛	-9.4886
寒	-9.48943
今度は	-9.48978
d	-9.49066
いかにも	-9.49082
をお	-9.49168
込み	-9.49175
もまた	-9.49205
章	-9.4921
の名	-9.49308
籠	-9.4935
今日は	-9.49361
結婚	-9.49373
隊	-9.49469
ぐらい	-9.49472
必ず	-9.49628
ところに	-9.49763
失	-9.4977
糸	-9.49857
からだ	-9.49866
あなたの	-9.50087
帰り	-9.50133
文字	-9.50147
er	-9.50277
祭	-9.50303
暗	-9.50308
ですが	-9.50327
結果	-9.50395
過ぎ	-9.50477
少年	-9.50555
侍	-9.50564
これで	-9.50619
県	-9.50758
科学	-9.50802
静かに	-9.50826
男が	-9.50856
と一緒に	-9.5086
腕	-9.50893
むしろ	-9.50908
ット	-9.50936
まり	-9.50939
二人は	-9.50955
きり	-9.5097
目的	-9.51034
なぞ	-9.51075
表現	-9.51132
類	-9.51229
あたり	-9.51254
一本	-9.51269
b	-9.51435
故	-9.51449
押し	-9.51607
丈	-9.51613
笑	-9.51713
子が	-9.51722
なさい	-9.51777
足を	-9.51851
妹	-9.51891
経験	-9.52
劇	-9.52021
席	-9.52079
かなり	-9.52099
列	-9.52252
とすれば	-9.52292
られている	-9.52304
ック	-9.52365
):	-9.52423
なくなった	-9.5244
合い	-9.52474
でもない	-9.52544
世間	-9.52572
順	-9.52584
芝居	-9.52594
段	-9.526
なれば	-9.52623
ペ	-9.52671
主人	-9.52724
非	-9.52733
そんなに	-9.5283
の中から	-9.52832
荒	-9.52881
▁其	-9.52909
残	-9.52936
制	-9.52937
できる	-9.53065
それでも	-9.53082
ちょうど	-9.53104
記憶	-9.53193
理解	-9.53219
▁此	-9.53219
兵衛	-9.53223
になりました	-9.53249
煙	-9.53256
長く	-9.53263
ではなく	-9.53296
最後の	-9.53299
ひとつ	-9.5332
立派な	-9.53447
を取り	-9.53457
歩いて	-9.5376
談	-9.53837
なのだ	-9.53859
ざる	-9.5386
ポ	-9.53994
のだから	-9.53997
声が	-9.53997
風に	-9.54006
池	-9.54025
らん	-9.54033
後の	-9.54078
本当に	-9.54085
也	-9.54089
割	-9.54098
不思議な	-9.54146
ホ	-9.54157
の花	-9.54257
次の	-9.54342
▁しかも	-9.54352
飯	-9.54406
園	-9.54457
したり	-9.54465
なので	-9.54544
様子	-9.54563
髪	-9.5459
弟	-9.54642
三人	-9.54734
街	-9.54742
理由	-9.54858
なるほど	-9.54878
倉	-9.54897
土地	-9.54904
ども	-9.54964
突き	-9.55
とともに	-9.55016
るような	-9.55031
陽	-9.55049
与	-9.55091
任	-9.55094
場所	-9.55098
今まで	-9.55098
馬鹿	-9.55138
附	-9.55157
職	-9.55161
棒	-9.55223
考えて	-9.55231
終	-9.55256
アル	-9.55339
時代の	-9.5534
夫人	-9.5536
涙	-9.55373
旦那	-9.55393
対	-9.55472
坊	-9.55481
いきなり	-9.55502
ことだ	-9.55552
先生の	-9.55558
いろいろ	-9.55577
部屋	-9.55695
せられた	-9.55705
話し	-9.55722
の方が	-9.55772
自分を	-9.55839
博士	-9.55928
夫婦	-9.55929
鏡	-9.55962
霊	-9.56
人形	-9.56118
放送	-9.56118
氷	-9.56126
そこへ	-9.56312
五郎	-9.5632
ばかりの	-9.56355
てゐた	-9.56359
散	-9.56368
というものは	-9.56407
物の	-9.5644
様な	-9.56544
コン	-9.56559
金を	-9.56609
▁その時	-9.56613
状	-9.56624
死ぬ	-9.56628
脚	-9.56741
ヘ	-9.56757
ですね	-9.56832
歩き	-9.56865
込む	-9.56934
〕	-9.5698
イン	-9.56999
賞	-9.57026
のやうな	-9.57039
んだよ	-9.57095
やっぱり	-9.571
方の	-9.57154
唯	-9.57216
強く	-9.57263
なのである	-9.5743
ここで	-9.57433
いくら	-9.57439
持って	-9.57481
福	-9.57494
思わず	-9.575
の事	-9.57549
覚	-9.57588
周	-9.57599
夕	-9.57737
興味	-9.57742
止	-9.5778
だね	-9.57823
上げて	-9.5784
国の	-9.5786
逆	-9.57865
崎	-9.57906
と言ふ	-9.57919
退	-9.57953
思った	-9.57962
越	-9.57999
のだろう	-9.58053
して居る	-9.58178
銀	-9.58193
いだ	-9.58225
あたし	-9.58228
姉	-9.58244
とり	-9.58315
同時に	-9.58359
ずっと	-9.58407
上げ	-9.58415
眼に	-9.58466
支那	-9.58483
なさ	-9.5854
跡	-9.58555
だの	-9.586
によつて	-9.58608
▁やがて	-9.5862
ことである	-9.58775
綱	-9.58831
妙な	-9.58844
何だか	-9.58882
▁そんな	-9.58975
▁私の	-9.59047
でせう	-9.59049
猫	-9.59086
いたが	-9.59105
しても	-9.59118
お前は	-9.59161
ことで	-9.59199
あと	-9.59307
焼	-9.59382
今日の	-9.59403
せず	-9.59462
言葉を	-9.59463
漢	-9.59495
歴史	-9.59532
学者	-9.59715
不安	-9.59801
云ふ	-9.59904
ということは	-9.59904
[	-9.59937
内に	-9.60096
=	-9.60172
"	-9.60173
外に	-9.60275
のため	-9.60344
のなかに	-9.60367
部分	-9.6042
の方に	-9.60508
と云った	-9.60515
以来	-9.60547
歳	-9.60629
注意	-9.60637
事が	-9.60803
そんなこと	-9.60803
衆	-9.60815
をしている	-9.60857
寄	-9.60961
二つ	-9.60964
眠	-9.6105
ゆる	-9.61059
群	-9.61075
帰る	-9.61086
所に	-9.61115
雑誌	-9.61127
昔の	-9.6114
猿	-9.61182
云って	-9.61194
の一	-9.61309
少しも	-9.61314
柄	-9.61376
ヌ	-9.61393
返	-9.61526
なさる	-9.61537
五十	-9.61643
すなわち	-9.61661
書いて	-9.6168
帯	-9.61726
広い	-9.61745
二つの	-9.61756
▁S	-9.61772
積	-9.61831
結	-9.6187
ティ	-9.61902
言ふ	-9.61975
極めて	-9.62001
▁for	-9.62002
雑	-9.62016
密	-9.62044
柱	-9.62209
計	-9.62247
地方	-9.62248
派	-9.6228
と思ふ	-9.62329
日の	-9.62381
トン	-9.62387
帰って	-9.62621
陰	-9.62717
けて	-9.62737
立った	-9.62789
話を	-9.62812
時の	-9.62815
おく	-9.62827
誰か	-9.62842
菊	-9.62844
吹き	-9.6286
▁いや	-9.62919
甲	-9.62983
これも	-9.62989
ヨ	-9.63007
一層	-9.63049
十分	-9.63121
黄	-9.63308
常に	-9.63393
リン	-9.63405
ところが	-9.6343
著	-9.63439
める	-9.63468
見えた	-9.63497
説明	-9.63504
一年	-9.63655
吉は	-9.63717
だし	-9.6373
見れば	-9.63748
茂	-9.63755
勇	-9.63764
えて	-9.63797
軽	-9.63908
ing	-9.63946
かう	-9.63978
砂	-9.64024
しめ	-9.64061
張り	-9.64095
事情	-9.64134
百姓	-9.64191
俺は	-9.64201
老人	-9.64439
約束	-9.64514
政治	-9.64515
'	-9.64597
奇	-9.64701
樣	-9.64743
▁つまり	-9.64823
舞台	-9.64922
哲学	-9.64966
岸	-9.65017
などと	-9.65031
聖	-9.65082
とにかく	-9.65105
冷	-9.65123
旗	-9.65148
としての	-9.65179
ところへ	-9.652
としても	-9.652
押	-9.65202
わたし	-9.65208
然	-9.65261
軒	-9.65278
望	-9.65382
夜の	-9.65418
条	-9.65435
遠い	-9.65609
殺	-9.65654
力を	-9.65693
杉	-9.65696
右衛門	-9.65723
水を	-9.65732
を見ると	-9.65736
つか	-9.65741
相談	-9.65742
思	-9.65765
方法	-9.65765
どうか	-9.65837
油	-9.65874
のであつた	-9.65881
20	-9.65896
出来る	-9.66006
興	-9.66068
E	-9.66134
ようだ	-9.66149
いで	-9.66216
知識	-9.66267
像	-9.66289
一人で	-9.66296
宝	-9.66487
蛇	-9.66499
運	-9.66503
置き	-9.66527
c	-9.66553
いつか	-9.66575
行つた	-9.66603
始めて	-9.66649
の音	-9.66668
きました	-9.66682
しゃ	-9.66683
自身	-9.66698
目の	-9.66739
喜	-9.66741
L	-9.66789
得る	-9.66846
無い	-9.66918
照	-9.66963
現象	-9.67033
飛んで	-9.67116
と言って	-9.67326
瀬	-9.67343
満足	-9.67344
次第に	-9.67414
▁さて	-9.67419
▁"	-9.67702
笑った	-9.67745
んだから	-9.67755
風の	-9.67756
半分	-9.67788
彦	-9.67933
るもの	-9.67938
じゃない	-9.67998
ものに	-9.68145
ざ	-9.68308
忘れ	-9.68318
されていた	-9.68492
銭	-9.68522
当時	-9.68527
いふ	-9.68582
浪	-9.68667
I	-9.68689
ほう	-9.68725
G	-9.68846
学生	-9.68854
孫	-9.68889
受け	-9.68907
徒	-9.68954
料理	-9.6901
▁こんな	-9.69028
に向って	-9.6909
華	-9.69138
ても	-9.69251
たく	-9.6933
なか	-9.69337
作家	-9.69348
あい	-9.69362
取って	-9.69383
わからない	-9.69392
一杯	-9.69466
パン	-9.6953
どうした	-9.69541
女性	-9.69564
k	-9.69609
聞いた	-9.69671
静	-9.69704
うつ	-9.69743
未だ	-9.6975
唐	-9.69761
せん	-9.69826
わかる	-9.69854
やや	-9.70018
あんまり	-9.70073
彼に	-9.70079
狂	-9.70159
▁平次は	-9.70169
登	-9.70243
三日	-9.70315
三年	-9.70378
魂	-9.70427
▁○	-9.70492
腰	-9.70601
之を	-9.70605
小屋	-9.70616
シュ	-9.70629
介	-9.70633
いかに	-9.70639
顏	-9.70688
走り	-9.70768
眞	-9.70829
ませんでした	-9.70861
そうして	-9.70876
まったく	-9.70937
証拠	-9.70987
ばかりで	-9.71067
辺	-9.71079
友達	-9.71198
つと	-9.71199
▁彼の	-9.71293
にとって	-9.71306
H	-9.71337
投げ	-9.71337
大阪	-9.71431
感情	-9.71467
平次	-9.71533
底	-9.71676
領	-9.71694
お前の	-9.71735
ものではない	-9.71808
大変	-9.71831
遂に	-9.71897
姫	-9.7191
乗り	-9.71954
までも	-9.71988
心持	-9.72066
または	-9.72075
したい	-9.7211
まった	-9.72179
るのは	-9.72221
報	-9.72372
額	-9.72394
ところを	-9.72402
良い	-9.72498
ようと	-9.72516
追	-9.72542
不思議	-9.72563
仁	-9.72571
努力	-9.72612
時計	-9.72614
浜	-9.72622
事業	-9.72706
国民	-9.72744
湖	-9.72754
青い	-9.72833
灯	-9.72925
頬	-9.72932
てしまった	-9.72987
題	-9.73105
希望	-9.73223
までは	-9.73259
秀	-9.73265
景	-9.73293
だか	-9.73337
ラー	-9.73358
ならぬ	-9.73361
の話	-9.73362
ゲ	-9.73444
があります	-9.73449
暫く	-9.73504
浮	-9.73519
に関する	-9.7353
ことはない	-9.73546
間もなく	-9.73612
ここ	-9.7364
京都	-9.73718
ユ	-9.7374
使い	-9.73767
ディ	-9.73786
家族	-9.73843
だけが	-9.73849
袋	-9.73895
▁そういう	-9.73903
丁度	-9.73917
シャ	-9.73956
いわゆる	-9.74038
二十	-9.7404
降り	-9.74056
ということ	-9.74084
結局	-9.74089
頭に	-9.7415
いろ	-9.74191
いえ	-9.742
のうち	-9.74201
▁四	-9.74235
ひき	-9.74268
そっと	-9.74356
映	-9.74584
歯	-9.74606
地に	-9.74662
比	-9.74672
上り	-9.74708
もはや	-9.74728
願	-9.7473
問	-9.74736
人生	-9.74766
だな	-9.74817
案内	-9.74832
を持つ	-9.74847
やう	-9.74853
l	-9.7492
かしら	-9.74966
▁ああ	-9.75017
違い	-9.75072
▁1	-9.75105
増	-9.75149
まえ	-9.75175
ごろ	-9.75229
生命	-9.75252
費	-9.75259
計画	-9.7533
工場	-9.75335
に於ける	-9.75355
永	-9.75355
すべての	-9.75412
三十	-9.75475
所謂	-9.75535
ひどい	-9.7564
ねばならぬ	-9.75708
工	-9.75717
などが	-9.75734
降	-9.7576
郷	-9.7577
一枚	-9.75773
痛	-9.75791
ラン	-9.75831
塩	-9.75849
策	-9.75925
答えた	-9.75958
家へ	-9.75985
けた	-9.75997
直ぐ	-9.76057
のですが	-9.76058
▁「......	-9.7606
全部	-9.7609
懐	-9.76135
商	-9.76153
離	-9.7617
私には	-9.76293
しさ	-9.76338
を出して	-9.76374
読み	-9.76383
があつた	-9.76441
申	-9.76526
頼	-9.76577
自己	-9.76594
肌	-9.76598
最	-9.76617
暇	-9.76649
ついに	-9.76676
て居る	-9.76678
大いに	-9.76718
癖	-9.76735
被	-9.76738
18	-9.76744
▁return	-9.76774
づ	-9.76793
弁	-9.76891
洋	-9.76968
のであろう	-9.77008
書いた	-9.77022
したら	-9.77026
母の	-9.77065
内容	-9.77105
あれは	-9.77172
かもしれない	-9.77178
こうして	-9.77284
のであるが	-9.77316
筈	-9.77337
してしまった	-9.77413
というような	-9.77417
刻	-9.7742
すら	-9.77434
尊	-9.7744
下に	-9.77456
知っている	-9.77527
一時	-9.7754
ール	-9.77554
生活の	-9.77577
人間が	-9.77593
鼠	-9.77631
15	-9.77638
来ました	-9.77639
さが	-9.77663
界	-9.77801
はっきり	-9.77936
子供の	-9.77937
せて	-9.77968
かつ	-9.7799
こんだ	-9.78012
低	-9.78024
まし	-9.78091
神の	-9.78177
▁小	-9.78203
向き	-9.78306
熊	-9.78324
N	-9.78448
▁and	-9.78552
くなった	-9.78582
屋敷	-9.78607
人々	-9.78621
切れ	-9.78635
一体	-9.78704
港	-9.78721
バー	-9.78734
隠	-9.78813
p	-9.78814
住	-9.7887
これに	-9.78935
がいい	-9.78957
是	-9.7902
したもの	-9.79091
en	-9.79091
▁そう	-9.79164
しなかった	-9.79236
竜	-9.79377
たしかに	-9.79403
というもの	-9.79469
少女	-9.79501
よりは	-9.79524
際	-9.79535
芸	-9.79543
あげて	-9.79549
云つた	-9.79562
歩く	-9.7963
現在	-9.79661
とて	-9.79785
そんなことを	-9.79848
鳴	-9.79856
往来	-9.79868
龍	-9.79869
であるから	-9.79909
貴	-9.79931
ぢ	-9.79949
おれ	-9.79965
養	-9.79986
だつて	-9.80034
』(	-9.80035
なども	-9.80054
くれる	-9.80081
聞	-9.80117
斎	-9.80135
なもの	-9.80165
の家	-9.8018
闇	-9.80181
年の	-9.80198
驚いた	-9.80199
泉	-9.80202
四十	-9.80217
側	-9.80264
のごとく	-9.803
初め	-9.80308
編	-9.80321
単に	-9.80367
調子	-9.80372
印	-9.80384
られない	-9.80426
30	-9.80458
見物	-9.80483
の声	-9.80501
学問	-9.80506
寺の	-9.80632
いと	-9.80658
死に	-9.80666
上げた	-9.80674
ものです	-9.80691
道具	-9.80745
まことに	-9.80811
決	-9.80817
かつて	-9.80842
めた	-9.80902
でもある	-9.80946
二年	-9.80993
かん	-9.81088
掛け	-9.81209
妾	-9.8123
弾	-9.81248
真実	-9.813
酔	-9.81318
電	-9.81333
随分	-9.81354
兄弟	-9.8137
おいで	-9.81418
泥	-9.81427
はこの	-9.81482
虎	-9.8149
をつけて	-9.81513
ずる	-9.81536
▁M	-9.81544
恐れ	-9.81573
たちの	-9.81578
わし	-9.81589
儀	-9.81613
枕	-9.81651
浦	-9.81722
府	-9.81756
田舎	-9.81845
口に	-9.81874
と思います	-9.81892
先生は	-9.81928
動物	-9.81949
習	-9.81949
去	-9.81976
止め	-9.8205
沼	-9.82075
al	-9.82083
みて	-9.82191
もあり	-9.82213
うまく	-9.82241
ーン	-9.82314
だけに	-9.82401
条件	-9.82416
の方は	-9.82436
の如き	-9.82502
返事	-9.82512
彼女	-9.82524
組織	-9.82559
受	-9.82594
▁第	-9.82596
姿を	-9.82646
たゞ	-9.82649
妙	-9.82657
に違いない	-9.82674
いつまでも	-9.82756
の上	-9.82798
誰が	-9.82847
U	-9.82863
のところへ	-9.82869
あります	-9.82872
省	-9.82886
そこから	-9.82905
従	-9.82976
in	-9.82987
見え	-9.83032
あんた	-9.83122
と同時に	-9.83153
付け	-9.83163
観念	-9.83172
明日	-9.83225
案	-9.8327
生きて	-9.83285
伊	-9.83306
アメリカ	-9.83313
膝	-9.83395
身の	-9.83415
優	-9.83475
ごと	-9.83477
仙	-9.83487
性格	-9.83493
下の	-9.83496
頭の	-9.83496
装	-9.83517
いなかった	-9.83579
当然	-9.83644
u	-9.83661
粉	-9.83762
連れ	-9.8377
置いた	-9.83817
勉強	-9.83878
こんなに	-9.83907
になっていた	-9.84007
しまい	-9.84037
へ行って	-9.84096
▁私が	-9.84109
カー	-9.84163
いけない	-9.84177
▁二人は	-9.84217
礼	-9.84283
名を	-9.84391
嘘	-9.84392
旅行	-9.844
ター	-9.84407
さんに	-9.84427
宗教	-9.84441
▁「――	-9.84446
よかった	-9.84482
昼	-9.84501
どこ	-9.84554
せい	-9.84582
遊び	-9.84591
怪	-9.84658
短	-9.84662
我が	-9.84679
ましたが	-9.84701
鶴	-9.84822
んと	-9.84848
▁*	-9.84855
電車	-9.84884
であったが	-9.84889
出来ない	-9.84937
振	-9.84986
唇	-9.8501
最初の	-9.85011
ベル	-9.85013
るべき	-9.85179
他に	-9.85232
ようになった	-9.85277
阿	-9.85334
なしに	-9.85337
着物	-9.85344
修	-9.8536
うん	-9.8538
僕が	-9.85388
空気	-9.85399
あげた	-9.85409
R	-9.85434
カン	-9.85434
記録	-9.85436
智	-9.85439
ないで	-9.85458
を持ち	-9.8551
事に	-9.85536
針	-9.85621
なんの	-9.85702
魔	-9.85779
態	-9.85793
詩人	-9.85831
女房	-9.85839
ますと	-9.8591
ものであった	-9.85931
あて	-9.85934
行つて	-9.86023
ちゃんと	-9.8605
恩	-9.86071
えた	-9.86079
はまた	-9.86101
あとで	-9.86126
うた	-9.86227
向う	-9.86267
に近い	-9.86271
八五郎	-9.86278
▁これが	-9.86311
については	-9.8632
気を	-9.86357
偶然	-9.86439
具	-9.86467
いると	-9.86512
だけの	-9.86555
バス	-9.86557
に相違ない	-9.86559
16	-9.86567
飲み	-9.86576
のではない	-9.86578
釣	-9.8661
さて	-9.86619
せば	-9.86726
眼が	-9.86749
落ちて	-9.86802
会社	-9.86808
生産	-9.86818
▁又	-9.86826
俺	-9.8683
家庭	-9.8683
もう一度	-9.86848
の上で	-9.86925
果	-9.86926
相手	-9.86961
來て	-9.87001
なんです	-9.87056
厭	-9.87077
いいえ	-9.87079
差し	-9.87091
はじめ	-9.87095
かかって	-9.87098
女中	-9.87098
才	-9.87111
堀	-9.87123
当時の	-9.87148
わたしの	-9.87159
一方	-9.87182
喧嘩	-9.87197
うる	-9.87211
できない	-9.87238
かどうか	-9.8739
▁〔	-9.87392
世の	-9.87501
気分	-9.87565
電話	-9.87628
医者	-9.87664
まって	-9.87683
中央	-9.87695
さすがに	-9.87703
商売	-9.8772
ずつ	-9.87748
▁A	-9.87766
兼	-9.87845
立っている	-9.8788
安心	-9.87919
叫んだ	-9.8795
もあった	-9.88042
詰	-9.88058
▁その後	-9.88063
伴	-9.88093
の中の	-9.88104
甚だ	-9.88161
らなかった	-9.88205
元気	-9.88272
技術	-9.8829
を受け	-9.88326
んですか	-9.88328
おります	-9.88334
と言った	-9.88397
▁'	-9.88403
生れ	-9.88412
知る	-9.8843
ブル	-9.8848
塔	-9.88483
の小	-9.88489
んですよ	-9.88494
遺	-9.88517
状態	-9.88528
のでしょう	-9.88609
騒ぎ	-9.88624
つける	-9.88713
間の	-9.88811
ことになる	-9.88864
霧	-9.88903
へ行く	-9.88905
ゼ	-9.88914
入る	-9.88921
十二	-9.88955
等の	-9.88955
言つた	-9.88983
考えた	-9.89043
恐怖	-9.89052
困る	-9.89071
▁わたしは	-9.89107
射	-9.8915
學	-9.89197
子を	-9.89202
趣味	-9.89208
機会	-9.89279
ください	-9.89307
J	-9.89324
吾	-9.89376
ゐ	-9.89475
人々は	-9.8948
▁2	-9.89524
以上の	-9.89546
辞	-9.89555
アー	-9.89557
先ず	-9.89578
の後	-9.89584
仕事を	-9.89618
人も	-9.89664
駈け	-9.89699
おう	-9.8973
之助	-9.89736
ちゃ	-9.89737
家を	-9.89738
如	-9.89757
現在の	-9.89799
および	-9.89839
第二	-9.89842
豊	-9.89847
ほかの	-9.90044
屋根	-9.90107
意志	-9.90125
おる	-9.90129
身に	-9.90258
健	-9.90274
呼び	-9.90292
流行	-9.90297
ゐて	-9.90385
體	-9.90386
批評	-9.90397
何とも	-9.90435
なくなる	-9.9044
代表	-9.90446
▁3	-9.90469
ふり	-9.90539
會	-9.90567
世に	-9.90596
なんぞ	-9.90666
しまう	-9.90705
おれは	-9.90709
務	-9.90795
好き	-9.90811
リと	-9.90895
進んで	-9.90914
友人	-9.90942
変化	-9.90944
くなって	-9.9096
耳に	-9.90965
幅	-9.90965
弥	-9.90973
なに	-9.90993
ほか	-9.91062
機械	-9.91099
ようやく	-9.91145
札	-9.9117
ならず	-9.91197
それと	-9.91232
苦しい	-9.91294
ほんとうに	-9.91328
俗	-9.91346
ッて	-9.91385
娘の	-9.91405
いている	-9.91491
手紙	-9.9153
それぞれ	-9.91591
Y	-9.91602
置く	-9.91654
狐	-9.9167
吹	-9.91756
あげ	-9.91762
途中	-9.91765
自動車	-9.91807
令	-9.91811
緑	-9.91826
▁「............」	-9.91894
O	-9.91898
おいて	-9.91936
f	-9.91964
自分に	-9.91975
▁何	-9.92059
皮	-9.92059
西洋	-9.9208
▁併し	-9.92082
▁五	-9.92109
おお	-9.92122
文章	-9.92125
尚	-9.92126
に行く	-9.92177
たった	-9.9224
おや	-9.92278
走	-9.92279
の木	-9.92323
低い	-9.92327
の娘	-9.92348
冠	-9.92364
想	-9.92382
さき	-9.9241
普通の	-9.92448
來る	-9.92481
そうか	-9.9251
価値	-9.9251
好きな	-9.92538
或	-9.92578
子さん	-9.92579
胸に	-9.92659
の一つ	-9.92716
語り	-9.92748
帰った	-9.92761
して来た	-9.92762
わざと	-9.92762
信仰	-9.92772
せられ	-9.9279
恐らく	-9.92818
しきりに	-9.92915
印象	-9.92924
える	-9.9298
唄	-9.92983
たちが	-9.93072
多少	-9.93094
けど	-9.93115
お母さん	-9.93171
人と	-9.93201
これまで	-9.93235
手紙を	-9.93288
とお	-9.9332
武蔵	-9.93331
墨	-9.9335
さうな	-9.93366
はじめた	-9.93394
始めた	-9.93395
ゆき	-9.93416
ふる	-9.93557
といい	-9.93576
家は	-9.93651
數	-9.93703
桜	-9.93744
入って	-9.93767
チャ	-9.93769
て来た	-9.93804
殆ど	-9.93814
写真	-9.93821
レン	-9.93837
多い	-9.93911
丁	-9.9394
理想	-9.9399
厳	-9.93997
エル	-9.94065
急いで	-9.94088
浅	-9.94145
そこ	-9.94238
妙に	-9.94245
だという	-9.94258
廻り	-9.94424
略	-9.94427
人々の	-9.94502
寒い	-9.94521
喜び	-9.94542
貫	-9.94656
じゃありませんか	-9.94661
小僧	-9.94671
調べ	-9.94749
笠	-9.94777
りした	-9.94807
形の	-9.94813
ならない	-9.94907
ときに	-9.94908
警察	-9.94912
現実	-9.9497
と思つた	-9.95006
on	-9.95007
再	-9.95008
共に	-9.95018
▁B	-9.95028
閑	-9.95038
はなかった	-9.95072
らせ	-9.95075
はありません	-9.95088
ならん	-9.95121
あなたが	-9.95172
性質	-9.95189
教授	-9.95259
役人	-9.95274
歩いた	-9.95284
峰	-9.95295
の女	-9.95375
前から	-9.95382
にかけて	-9.95429
お前さん	-9.95445
なければならぬ	-9.95509
只	-9.95526
中国	-9.95552
宅	-9.95576
方に	-9.95595
孝	-9.95616
微	-9.95626
了	-9.95653
思って	-9.95706
算	-9.95708
畳	-9.95721
やつ	-9.95761
ソン	-9.95764
居ります	-9.9578
かし	-9.95826
ありません	-9.95862
それだけ	-9.95918
追い	-9.95927
▁D	-9.9594
今朝	-9.95962
考	-9.95988
の人	-9.96059
▁if	-9.96067
貞	-9.96069
したのは	-9.9611
ごく	-9.96127
ダー	-9.96217
を引き	-9.96236
建	-9.96259
丘	-9.96327
空間	-9.96343
らう	-9.96374
どういう	-9.96425
フランス	-9.96482
気の	-9.96487
級	-9.96506
言ひ	-9.96509
かかった	-9.96574
それらの	-9.96582
は何	-9.96658
かれた	-9.96704
ではありません	-9.96751
といえば	-9.96766
汝	-9.96789
▁C	-9.96842
寄り	-9.96863
示	-9.96917
主人の	-9.96984
繁	-9.96985
愚	-9.96985
存	-9.96996
答え	-9.97039
靴	-9.97055
消	-9.97111
君に	-9.97161
せられる	-9.97167
W	-9.97171
の下	-9.97229
▁def	-9.97345
自身の	-9.9735
くら	-9.9736
たちまち	-9.97376
が多い	-9.97377
女子	-9.97456
」(	-9.97517
弓	-9.97518
心が	-9.97524
白く	-9.97611
一同	-9.97622
ばかりでなく	-9.97653
待ち	-9.97684
するもの	-9.97695
鹿	-9.97725
率	-9.97744
滝	-9.97747
死んで	-9.97809
そこの	-9.97822
ゞ	-9.97851
彼等の	-9.97859
将	-9.9787
レー	-9.97876
途	-9.97893
帝	-9.97923
しまいました	-9.97942
遣	-9.97951
たか	-9.97953
栄	-9.97986
俺の	-9.98061
の姿	-9.98083
もつと	-9.98115
もなかった	-9.98133
未	-9.98136
よろしい	-9.98171
玄	-9.98194
ものがある	-9.98228
すぎる	-9.98254
行くと	-9.98272
天井	-9.98422
無理	-9.98427
にお	-9.98431
どこへ	-9.9844
党	-9.98452
どうだ	-9.98491
酒を	-9.98566
尻	-9.98619
者に	-9.98626
顔に	-9.98627
脱	-9.98636
鶏	-9.9865
族	-9.98691
純	-9.98737
羅	-9.9879
投	-9.98836
世話	-9.989
一九	-9.98928
至	-9.98965
これらの	-9.98979
ここへ	-9.98981
のことで	-9.99004
評	-9.99012
大分	-9.99022
風が	-9.99038
果して	-9.99067
ヴィ	-9.99145
反対	-9.99171
監督	-9.99218
向け	-9.99225
左衛門	-9.99232
▁それでも	-9.99271
製	-9.99295
ほんとに	-9.99331
みる	-9.99347
付き	-9.99377
同情	-9.99424
の中には	-9.99475
▁list	-9.99501
ed	-9.99544
秘密	-9.99619
手前	-9.99633
管	-9.99739
そのとき	-9.99744
▁#	-9.99752
送	-9.99756
特	-9.99756
兄さん	-9.99779
近い	-9.99797
踏み	-9.99825
滅	-9.99877
りながら	-9.99879
なくて	-9.99902
現代	-9.99923
もありません	-9.99938
どうぞ	-9.99978
賊	-10.0002
校	-10.0006
タン	-10.0008
のでございます	-10.0009
知り	-10.001
へて	-10.0014
紋	-10.0015
二度	-10.0021
一般	-10.0022
基	-10.0023
明るい	-10.0025
塚	-10.0031
モン	-10.004
某	-10.0045
原因	-10.0054
んだろう	-10.0057
んでいる	-10.0059
何でも	-10.0063
をしていた	-10.0066
さういふ	-10.0066
危険	-10.0075
入った	-10.0078
なんだか	-10.008
習慣	-10.0083
懸	-10.0083
敷	-10.0099
りて	-10.0101
選	-10.0104
13	-10.0106
の方から	-10.0111
とび	-10.0111
げに	-10.0112
微笑	-10.0113
配	-10.0116
予	-10.0124
にとっては	-10.0124
奥さん	-10.0128
おし	-10.0129
紳士	-10.0133
乾	-10.0134
”	-10.0135
or	-10.0137
一切	-10.0137
大正	-10.0145
面を	-10.0149
網	-10.0151
だろうか	-10.0157
覚え	-10.0158
は全く	-10.0159
▁print	-10.0162
仕方がない	-10.0162
甲斐	-10.017
どこか	-10.0175
復	-10.0177
▁私	-10.0178
笑って	-10.018
槍	-10.018
如く	-10.0192
抜け	-10.0193
かず	-10.0195
ということを	-10.0195
意味で	-10.0195
平成	-10.0201
に来た	-10.0206
司	-10.0211
何と	-10.0213
の中を	-10.0213
切って	-10.0215
称	-10.0217
▁けれど	-10.022
おそらく	-10.0225
賢	-10.0234
敬	-10.0242
すぎ	-10.0247
評判	-10.0249
全体	-10.0249
息を	-10.0257
活	-10.0261
舞	-10.0264
母親	-10.028
甚	-10.0282
方を	-10.0283
潮	-10.029
をとり	-10.0293
つもりで	-10.0295
暮	-10.0297
動き	-10.0302
仲間	-10.0304
14	-10.0306
太郎は	-10.0313
かと思うと	-10.0313
le	-10.0314
弟子	-10.0318
行動	-10.0321
らせて	-10.0323
藩	-10.033
になります	-10.0333
天皇	-10.0333
温泉	-10.0349
をし	-10.0352
改	-10.0355
斯う	-10.0358
落ちた	-10.0358
辻	-10.0358
亭主	-10.0361
亀	-10.0361
手の	-10.0361
にでも	-10.0364
買	-10.0364
話して	-10.0367
営	-10.0369
でありました	-10.037
桃	-10.0371
机	-10.0371
知らず	-10.0372
殆んど	-10.0373
ければ	-10.0379
婆	-10.0383
なのです	-10.0384
火の	-10.0385
一郎	-10.0387
得意	-10.0392
の方	-10.0396
嫁	-10.0398
分らない	-10.0399
寄って	-10.0405
などに	-10.0408
に過ぎない	-10.0408
こっち	-10.0411
忽ち	-10.0416
であるか	-10.0416
承知	-10.0421
ライ	-10.0424
その他	-10.0424
空に	-10.0428
ったり	-10.043
荷	-10.0435
川の	-10.0437
裸	-10.0438
舎	-10.0443
置	-10.0444
売り	-10.0445
束	-10.0445
胸を	-10.0454
するのは	-10.0456
たが	-10.046
だす	-10.0467
處	-10.047
踏	-10.0472
坐	-10.0474
かれて	-10.0474
所へ	-10.0476
部屋に	-10.0479
ハイ	-10.0479
方は	-10.0481
出版	-10.0482
入れて	-10.0484
職業	-10.0486
おき	-10.0488
農	-10.0488
の問題	-10.0489
いずれ	-10.0493
でしょうか	-10.0499
労働	-10.0503
神経	-10.0503
皿	-10.0507
ようである	-10.051
直接	-10.051
▁自分は	-10.0511
してくれ	-10.0515
ジャ	-10.0517
聞く	-10.0519
ようとする	-10.052
疑	-10.0522
沢山	-10.0523
さんと	-10.0526
馬車	-10.053
聲	-10.0538
でなく	-10.0541
染	-10.0542
窓から	-10.0542
手が	-10.0543
ほかに	-10.0547
木の	-10.0548
漸く	-10.0548
手段	-10.055
ところの	-10.055
応	-10.0554
用意	-10.0556
仰	-10.0556
公園	-10.0557
形式	-10.0558
たま	-10.0568
十日	-10.0568
感じた	-10.0573
そば	-10.0573
味方	-10.0578
カラ	-10.0579
判	-10.0579
さうに	-10.058
こともある	-10.0583
相手の	-10.0585
25	-10.0587
覚悟	-10.0589
オー	-10.059
起き	-10.059
汗	-10.0592
を取って	-10.0595
臣	-10.0597
せぬ	-10.0603
春の	-10.0605
縄	-10.0606
思ふ	-10.0615
当て	-10.0615
はしない	-10.0616
少	-10.0616
においては	-10.062
革命	-10.062
何が	-10.0621
撃	-10.0627
くり	-10.0633
じゅう	-10.0633
の生活	-10.0634
使用	-10.0637
からね	-10.0643
ゐない	-10.065
を持っている	-10.0652
彼女が	-10.0656
話した	-10.0659
生涯	-10.0676
演	-10.0677
道の	-10.0678
没	-10.0679
肉体	-10.0681
続いて	-10.0687
月に	-10.0688
舌	-10.0693
理論	-10.0693
▁is	-10.0693
宇宙	-10.0696
のもの	-10.0696
道徳	-10.0699
時分	-10.07
眼で	-10.0702
十年	-10.0704
欲	-10.0708
階	-10.0714
まれ	-10.0715
速	-10.0716
人たち	-10.0719
おりました	-10.0719
挨拶	-10.0724
ごとに	-10.0727
嫌	-10.0728
何う	-10.0729
一言	-10.0729
▁日本	-10.0734
過去	-10.0739
お父さん	-10.074
ふう	-10.0743
雷	-10.0743
因	-10.0745
▁p	-10.0745
容易に	-10.0747
太陽	-10.0749
鐘	-10.0752
壮	-10.0752
解釈	-10.0753
話が	-10.0754
二日	-10.0755
包	-10.0757
申す	-10.0761
考える	-10.0765
呉	-10.0767
であろうか	-10.0775
▁T	-10.0776
パー	-10.0782
劇場	-10.0784
ほんの	-10.0785
さも	-10.0786
層	-10.0787
食事	-10.0789
とう	-10.0789
しろ	-10.0793
も亦	-10.0796
紫	-10.0805
象	-10.081
はあ	-10.0816
寿	-10.0816
隅	-10.083
内の	-10.0833
椅子	-10.0835
蔭	-10.0837
イヤ	-10.084
為に	-10.084
賀	-10.0841
のさ	-10.0843
生徒	-10.0845
早い	-10.0856
三人の	-10.0859
獣	-10.0866
鉄道	-10.087
いかなる	-10.0874
駒	-10.0874
だして	-10.0884
だけでも	-10.0887
わかった	-10.089
人間は	-10.089
のほうへ	-10.0892
うて	-10.0894
確かに	-10.0895
調子で	-10.0896
水の	-10.0899
かり	-10.09
地球	-10.0906
シー	-10.0909
を感じた	-10.091
疲れ	-10.0915
戻	-10.0915
供	-10.0915
野郎	-10.0925
せた	-10.0926
踊り	-10.0938
議	-10.0939
損	-10.0939
とおり	-10.0941
を取	-10.0948
馬の	-10.0951
多分	-10.0954
自分も	-10.0954
大臣	-10.0959
にする	-10.0961
料	-10.0961
過ぎる	-10.0962
詞	-10.0962
返し	-10.0963
昨日	-10.0964
辰	-10.0965
政府	-10.0966
体を	-10.0968
温	-10.0977
日本人	-10.0977
盤	-10.0979
散歩	-10.0982
格	-10.0986
に就いて	-10.0986
は決して	-10.0987
彼らの	-10.0991
下り	-10.0993
名の	-10.0994
いくらか	-10.0996
護	-10.0997
垣	-10.0999
遠慮	-10.1002
責任	-10.1003
にした	-10.1006
何となく	-10.1011
大将	-10.102
秋の	-10.1021
さに	-10.1027
うまい	-10.1029
わり	-10.1037
留守	-10.1038
近代	-10.104
階級	-10.1041
るか	-10.1045
勘	-10.1047
やつて	-10.1049
成功	-10.1049
ぢやないか	-10.1054
医	-10.1055
暴	-10.1057
灰	-10.1063
陸	-10.107
実験	-10.107
の前で	-10.1073
ところは	-10.1077
否	-10.1078
感覚	-10.1079
ようで	-10.1081
腰を	-10.1083
かす	-10.1086
害	-10.1086
乍ら	-10.1087
殊に	-10.1089
惡	-10.1109
迷	-10.111
いつでも	-10.1112
今夜	-10.1116
と彼は	-10.1119
を受けた	-10.1121
それでは	-10.1123
燃え	-10.1123
と云つて	-10.1123
岳	-10.1123
苦痛	-10.1134
墓	-10.1143
進歩	-10.1145
以下	-10.1146
運命	-10.115
▁P	-10.1154
海岸	-10.1158
知らぬ	-10.116
膳	-10.1163
というのが	-10.1165
発展	-10.1168
17	-10.1173
軽く	-10.1175
と思われる	-10.1185
ではあるが	-10.1186
驚き	-10.1187
行きました	-10.1192
坊主	-10.1195
ずいぶん	-10.1195
狭い	-10.1198
の子	-10.1199
力が	-10.12
中で	-10.1202
外の	-10.1204
乳	-10.1206
さうだ	-10.1211
望み	-10.1211
じゃあ	-10.1216
五年	-10.1217
にならない	-10.122
俊	-10.1222
づけ	-10.1227
の色	-10.1234
助け	-10.1236
写	-10.1239
の時	-10.124
延	-10.1243
去る	-10.1243
あまりに	-10.1246
あっ	-10.1253
蘭	-10.1257
経済	-10.1257
隆	-10.1259
の世界	-10.1272
申し	-10.1273
典	-10.1278
it	-10.1283
何故	-10.1286
兩	-10.1287
武士	-10.1288
いろいろな	-10.1288
別の	-10.1291
いずれも	-10.13
夫人は	-10.13
g	-10.1308
者を	-10.131
ar	-10.1314
鈴	-10.1314
プロ	-10.1316
次に	-10.1323
来ると	-10.1323
細い	-10.1324
うむ	-10.1326
近頃	-10.1327
有名な	-10.1329
an	-10.1339
と思い	-10.1339
禁	-10.1342
いったい	-10.1343
書く	-10.1344
栗	-10.1346
ようとした	-10.1353
0	-10.1356
合せ	-10.1356
将軍	-10.1358
出された	-10.1359
発見	-10.1365
静かな	-10.1366
▁こういう	-10.1368
系	-10.1368
所で	-10.1368
刑事	-10.137
みたいな	-10.1379
諸君	-10.1379
ときは	-10.1382
概念	-10.1385
手で	-10.1385
駆け	-10.1386
紀	-10.1386
店の	-10.1391
氏が	-10.1391
離れ	-10.1393
揚	-10.1395
気持ち	-10.1396
師匠	-10.1398
萬	-10.1403
なるもの	-10.1406
始末	-10.1409
▁さうして	-10.1413
商人	-10.1415
何処	-10.1418
判断	-10.1421
文芸	-10.1421
所の	-10.1422
カル	-10.1427
▁新	-10.1427
が悪い	-10.143
泣く	-10.1431
国家	-10.1435
燈	-10.1439
たくさん	-10.1443
朱	-10.1444
さず	-10.1444
美しく	-10.1449
早速	-10.1452
しようと	-10.1453
昨夜	-10.1453
知って	-10.1454
見えない	-10.146
おち	-10.1461
生活を	-10.1464
るんだ	-10.1466
があつて	-10.1473
へと	-10.1476
始め	-10.1478
身体	-10.1478
絶えず	-10.1482
廃	-10.1483
普通	-10.1489
▁まだ	-10.149
ままに	-10.1504
御用	-10.1505
マー	-10.1509
恋愛	-10.1509
充分	-10.151
棚	-10.151
れない	-10.1511
鉢	-10.1514
ニー	-10.1521
夕方	-10.153
▁そのとき	-10.153
法律	-10.1531
わる	-10.1532
ませぬ	-10.1535
先づ	-10.154
如何に	-10.1541
利用	-10.1548
いても	-10.1549
さない	-10.1554
たのは	-10.1561
電気	-10.1564
▁第一	-10.1565
▁s	-10.1568
座敷	-10.1569
庵	-10.1577
重い	-10.1583
生れた	-10.1583
容	-10.1584
光り	-10.1584
困難	-10.1586
納	-10.1588
全然	-10.1588
つゝ	-10.1589
つて居る	-10.1593
晴	-10.16
煙草	-10.16
横に	-10.1602
律	-10.1602
のなかで	-10.1612
段々	-10.1613
となっている	-10.1614
at	-10.1614
番組	-10.1622
たまま	-10.1624
忍び	-10.1628
世界の	-10.1631
父は	-10.1631
立つて	-10.1632
独り	-10.1635
後で	-10.1638
傳	-10.1638
というので	-10.164
銃	-10.1646
認識	-10.1648
呉れ	-10.1656
雪の	-10.1657
童	-10.1657
大衆	-10.166
V	-10.1665
一生	-10.1666
区別	-10.1667
変な	-10.1668
材料	-10.1671
噂	-10.1674
實	-10.1674
来ている	-10.1675
五月	-10.1676
批判	-10.1682
かない	-10.1684
話は	-10.1687
十五	-10.1688
枚	-10.169
上って	-10.1692
秘	-10.1696
かねて	-10.1698
ったら	-10.17
動か	-10.1701
空想	-10.1703
盛り	-10.1703
世の中	-10.1709
以前	-10.171
甘	-10.171
おれの	-10.1712
って来た	-10.1713
食い	-10.1724
▁i	-10.1725
あげる	-10.1727
まわり	-10.1729
re	-10.173
ヶ	-10.173
リア	-10.1732
あなたに	-10.1733
伏	-10.1742
やれ	-10.1743
観察	-10.1747
何時	-10.1749
ペン	-10.1751
午後	-10.1754
健康	-10.1759
考へて	-10.176
小学校	-10.1761
の上へ	-10.1762
洗	-10.1768
俳優	-10.178
合う	-10.1786
なんでも	-10.179
限	-10.1793
んだが	-10.1797
らしかった	-10.1801
怒り	-10.1801
我々の	-10.1805
もう一つ	-10.1807
麻	-10.1807
だったが	-10.181
▁もっとも	-10.1811
ナー	-10.1813
肩を	-10.1815
本当の	-10.1819
によると	-10.1822
喰	-10.1823
のまま	-10.1825
ファ	-10.1827
紹介	-10.1833
しばしば	-10.1836
更	-10.1842
わね	-10.1849
此方	-10.1855
のですか	-10.1856
とある	-10.1866
あゝ	-10.187
程度	-10.1872
どうやら	-10.1879
ようにして	-10.1882
▁でも	-10.1884
▁4	-10.1885
干	-10.1885
植物	-10.1887
々々	-10.189
真理	-10.189
それほど	-10.1891
二三	-10.1893
エン	-10.1894
威	-10.1897
作用	-10.1897
さっき	-10.1903
襲	-10.1905
さら	-10.1905
おまえ	-10.1909
働き	-10.191
▁夜	-10.1911
出しました	-10.1914
ルー	-10.1918
にまで	-10.1918
部屋の	-10.1919
尼	-10.192
といふこと	-10.192
傾向	-10.1925
婦	-10.1926
の水	-10.1927
防	-10.1928
まア	-10.1935
顔色	-10.1939
ますよ	-10.1941
三月	-10.1946
己	-10.1951
もっとも	-10.1963
どころ	-10.1963
お話	-10.1965
半ば	-10.1965
境	-10.1971
熟	-10.1975
の顔	-10.1983
即	-10.1983
調査	-10.1984
若し	-10.1987
筈だ	-10.1987
っこ	-10.1995
寧ろ	-10.1995
やあ	-10.2
蓮	-10.2001
悲しい	-10.2008
連中	-10.2009
ァ	-10.2012
そら	-10.2013
心地	-10.2015
行為	-10.2017
壺	-10.2024
の山	-10.2027
都市	-10.2027
飾	-10.2028
ジェ	-10.203
終り	-10.2031
解決	-10.204
別れ	-10.2041
の一部	-10.2043
切った	-10.2046
驚いて	-10.2046
ちやん	-10.2049
芳	-10.2055
却って	-10.2057
掌	-10.206
隙	-10.2063
怒	-10.2068
正しい	-10.2069
べし	-10.2069
頭が	-10.2072
平和	-10.2078
四郎	-10.2079
過ぎた	-10.208
屈	-10.2081
風景	-10.2089
あつて	-10.2091
自信	-10.2096
今も	-10.2097
そうした	-10.2104
祝	-10.2106
▁六	-10.2107
list	-10.2109
?』	-10.211
先生が	-10.2111
峠	-10.212
丹	-10.2121
不幸	-10.2126
他人	-10.2129
眉	-10.213
フィ	-10.2132
と私は	-10.2136
いらっしゃる	-10.2136
冗談	-10.2137
もう少し	-10.214
攻撃	-10.2141
するために	-10.2145
注	-10.2146
一応	-10.2148
減	-10.2149
曰く	-10.2149
われわれ	-10.2151
始	-10.2152
ないか	-10.2154
有様	-10.2156
小さく	-10.2159
々しく	-10.2159
もいい	-10.216
z	-10.216
乞食	-10.2162
わざわざ	-10.2162
妻の	-10.2166
いいました	-10.2169
の神	-10.2172
X	-10.2173
からも	-10.2175
つもり	-10.2175
十六	-10.2177
眼の	-10.2178
ドア	-10.2183
書物	-10.2185
に入る	-10.2191
報告	-10.2193
したる	-10.2195
三つ	-10.2197
と見えて	-10.2198
動く	-10.22
眺め	-10.2203
の外に	-10.2204
ってしまった	-10.2205
いながら	-10.2205
th	-10.2211
十郎	-10.2212
+	-10.2212
抜	-10.2212
ります	-10.2213
▁ところで	-10.2215
劣	-10.2219
さを	-10.2221
決定	-10.2221
ということが	-10.2232
建物	-10.2235
何にも	-10.2239
慾	-10.2239
属	-10.224
花の	-10.2241
食物	-10.2241
自然に	-10.2242
とかいう	-10.2248
討	-10.2249
超	-10.2249
労	-10.2252
駕籠	-10.2253
識	-10.2254
待って	-10.2254
殺し	-10.2255
当り	-10.2258
潜	-10.2259
地の	-10.2261
さして	-10.2263
的なもの	-10.227
心理	-10.2273
せめて	-10.2277
〜	-10.2284
とし	-10.2285
人口	-10.2287
そりゃ	-10.2288
へえ	-10.2293
話す	-10.2294
思い出	-10.2299
球	-10.2304
罰	-10.2306
すみ	-10.2307
云ひ	-10.2308
位の	-10.2311
そうである	-10.2314
貧乏	-10.2314
上げる	-10.2317
ちっとも	-10.2317
顔をして	-10.2318
であつて	-10.2319
弘	-10.2323
豆	-10.2327
支	-10.2328
するように	-10.2328
太夫	-10.2332
今度	-10.2334
それとも	-10.2339
にちがいない	-10.2339
マル	-10.2343
叫び	-10.2344
やす	-10.2345
負	-10.2347
たれ	-10.2349
効果	-10.2349
作り	-10.235
肥	-10.2359
▁女は	-10.2359
かげ	-10.2365
四方	-10.2366
黙	-10.2375
ドイツ	-10.2375
にあった	-10.2376
を受けて	-10.2376
島の	-10.2377
台所	-10.2378
ことです	-10.2382
この時	-10.2384
ゆえ	-10.2385
ブラ	-10.2387
わい	-10.2388
庄	-10.2389
すと	-10.2391
誤	-10.2392
たいへん	-10.2393
の歌	-10.2394
見られる	-10.2396
推	-10.2396
教師	-10.2406
常識	-10.2407
を持った	-10.2409
目が	-10.241
へ出て	-10.2414
帳	-10.2414
いき	-10.2415
見せた	-10.2422
じて	-10.2425
爲	-10.2425
降りて	-10.243
の言葉	-10.2434
きいた	-10.2434
々たる	-10.2435
僕も	-10.2435
おくれ	-10.2438
笑ひ	-10.2438
ようです	-10.2442
なほ	-10.2443
仮	-10.2444
第三	-10.2444
いろいろの	-10.2446
しなければならない	-10.2446
低く	-10.2451
達は	-10.2452
開いて	-10.2452
祖	-10.2456
宜い	-10.2457
間違い	-10.2457
んだね	-10.2458
うしろ	-10.2459
四年	-10.246
▁なお	-10.2461
富士	-10.2465
立っていた	-10.2466
頼み	-10.2471
勿論	-10.2472
出演	-10.2475
葬	-10.2476
能力	-10.2478
もん	-10.2487
わたくし	-10.2489
せし	-10.249
逸	-10.2493
▁いま	-10.2494
消えて	-10.2494
訊いた	-10.2496
性の	-10.2498
汚	-10.2508
ラジオ	-10.2508
と思つて	-10.2509
どれ	-10.251
美人	-10.2517
本当	-10.2522
統一	-10.2523
勇気	-10.2523
祖母	-10.2525
又は	-10.2528
せられて	-10.2531
ガン	-10.2532
弱い	-10.2533
られていた	-10.254
を持つて	-10.254
笛	-10.2542
綿	-10.2543
正月	-10.2543
金の	-10.2544
てしまう	-10.2545
検	-10.2546
都合	-10.2547
よほど	-10.2547
は無い	-10.2551
を知る	-10.2554
後から	-10.2555
出で	-10.256
直ぐに	-10.2567
虚	-10.2568
致	-10.2574
母は	-10.2576
庭の	-10.2577
引っ	-10.2578
固	-10.2578
寢	-10.2578
明らかに	-10.2582
起きて	-10.2582
すき	-10.2585
独	-10.2589
もしない	-10.2591
していて	-10.2596
値	-10.2601
の心	-10.2601
ヴ	-10.2603
クラ	-10.2604
井戸	-10.2604
病人	-10.2606
激	-10.2607
両手を	-10.2607
独立	-10.2609
よろ	-10.2621
っちゃ	-10.2621
挙	-10.2623
奉	-10.263
砲	-10.2641
に行った	-10.2643
子供が	-10.2643
息子	-10.2643
のみならず	-10.2644
次第	-10.2648
焼け	-10.2649
たん	-10.2652
右の	-10.2659
態度	-10.2659
してある	-10.2662
石の	-10.2663
生きている	-10.267
▁string	-10.267
朝の	-10.267
心から	-10.2676
崖	-10.2676
りする	-10.2682
圧	-10.2684
合った	-10.2685
子に	-10.2686
時代に	-10.2691
絹	-10.2692
道路	-10.2695
合って	-10.2699
シン	-10.27
でなければ	-10.27
有り	-10.2702
われた	-10.2709
機関	-10.2718
今では	-10.2719
ないように	-10.2721
去った	-10.2722
あけ	-10.2722
力の	-10.2724
幽霊	-10.2726
當	-10.2727
んでしょう	-10.2728
労働者	-10.2731
場の	-10.2736
きょう	-10.2736
拙者	-10.2739
▁さあ	-10.2739
皇	-10.274
得ない	-10.2753
博士の	-10.2754
家が	-10.2756
然と	-10.2763
議論	-10.2773
袖	-10.2774
およそ	-10.2776
読んで	-10.2777
ものですから	-10.2782
亭	-10.2786
表面	-10.2786
読	-10.2787
煮	-10.2789
っぱ	-10.2789
然し	-10.2794
混	-10.2796
身分	-10.2804
出来た	-10.2811
兄の	-10.2812
どこに	-10.2815
疑い	-10.2816
違	-10.2819
こんどは	-10.2819
凝	-10.2822
閉	-10.2823
フェ	-10.2825
けば	-10.2827
どうする	-10.2828
得た	-10.2829
過ぎて	-10.2829
刺	-10.2833
美術	-10.2837
捕	-10.2837
の研究	-10.2838
くて	-10.2839
まゝ	-10.2841
琴	-10.2843
なア	-10.2843
似	-10.2846
あいつ	-10.2848
%	-10.2849
の上を	-10.2849
廻	-10.2851
自己の	-10.2852
顔が	-10.2853
りして	-10.2854
21	-10.2854
こむ	-10.2855
人で	-10.2855
記念	-10.2858
炭	-10.2865
方へ	-10.2866
h	-10.287
呼	-10.2878
▁こう	-10.2881
自殺	-10.2882
文句	-10.2883
ぼんやり	-10.2884
そうで	-10.2885
最後に	-10.2886
変った	-10.2888
玄関	-10.2888
を引	-10.2889
悪く	-10.2891
稲	-10.2892
社会的	-10.2898
欠	-10.2902
▁女	-10.2905
したのである	-10.2905
▁そこへ	-10.2908
完全に	-10.2908
出て来た	-10.2909
たとえ	-10.291
きみ	-10.291
を聞いて	-10.2911
釣り	-10.2913
社会の	-10.2914
働く	-10.2919
を得	-10.292
しまって	-10.2929
かき	-10.293
することは	-10.2931
何だ	-10.2932
夫の	-10.2932
救	-10.2933
返す	-10.2934
スター	-10.2943
細君	-10.2944
女の子	-10.2947
に出て	-10.2951
この頃	-10.2953
名前	-10.2954
々しい	-10.2954
私たち	-10.2957
霜	-10.2964
失礼	-10.2964
ジュ	-10.2965
下りて	-10.2968
違う	-10.2969
艶	-10.2975
気味	-10.2986
わけで	-10.2986
及	-10.299
つぶ	-10.2993
収	-10.2993
なくなって	-10.3
自然の	-10.3002
菜	-10.3003
の国	-10.3007
快	-10.301
技	-10.301
不足	-10.3011
もちろん	-10.3013
上る	-10.3016
人民	-10.302
うす	-10.3024
祖父	-10.3024
どっち	-10.3026
▁七	-10.3026
女に	-10.3027
しん	-10.3028
居りました	-10.3031
短い	-10.3033
ときには	-10.3034
盗	-10.3036
ぢやない	-10.3041
苦しみ	-10.3043
そのもの	-10.3044
の場合	-10.3047
廻って	-10.3057
豪	-10.3066
今でも	-10.307
襟	-10.307
返して	-10.3071
探偵	-10.3073
易	-10.3074
is	-10.3074
の前	-10.3079
爪	-10.3081
山に	-10.3081
勢力	-10.3082
24	-10.3082
変り	-10.3087
場合には	-10.3089
二人が	-10.3089
發	-10.309
あんなに	-10.3092
雅	-10.3095
▁それも	-10.3095
るのが	-10.3095
捨て	-10.3096
かも知れぬ	-10.3097
隣	-10.3099
期待	-10.3099
洲	-10.3106
するような	-10.3107
ぐる	-10.311
帽子	-10.3112
し得る	-10.3114
是非	-10.3117
貝	-10.3123
していたが	-10.3129
消え	-10.3135
うちの	-10.3136
矛盾	-10.3138
先刻	-10.3138
殺された	-10.3139
23	-10.3142
来い	-10.3147
せり	-10.3149
瞬間	-10.3154
頸	-10.3155
住居	-10.3161
五日	-10.3164
につれて	-10.3165
三度	-10.3171
さと	-10.3172
穂	-10.3173
制度	-10.3175
沖	-10.3177
雀	-10.3177
名は	-10.3178
不意に	-10.318
のう	-10.3184
提灯	-10.3187
踊	-10.3188
晴れ	-10.319
随	-10.3194
良人	-10.3194
もせず	-10.3197
東京の	-10.3198
ぴ	-10.3199
課	-10.3201
怪しい	-10.3203
以後	-10.3204
ホテル	-10.3205
そこを	-10.3206
要求	-10.3206
がね	-10.3208
来ない	-10.321
見ても	-10.3217
李	-10.3223
信長	-10.3224
忌	-10.3224
みたい	-10.3224
ともかく	-10.3225
選手	-10.3226
るところ	-10.3228
個人	-10.3229
犯人	-10.3232
點	-10.3239
女を	-10.3239
失敗	-10.3241
悲しみ	-10.3243
うら	-10.3244
須	-10.3245
倍	-10.3245
鍵	-10.3247
鳴り	-10.3248
死体	-10.3252
恥	-10.3253
天下	-10.3254
泊	-10.3256
沈	-10.3259
珍	-10.326
ありました	-10.3262
がなかった	-10.3264
まん	-10.3264
の葉	-10.3264
るほど	-10.3268
“	-10.327
へる	-10.3272
まつ	-10.3273
を見せて	-10.3273
風呂	-10.3274
質問	-10.3275
足の	-10.3276
如何	-10.3277
寄せて	-10.3282
との間に	-10.3283
々として	-10.3286
導	-10.3286
はいって	-10.3287
試合	-10.3287
てきた	-10.3288
感謝	-10.3292
近所の	-10.3294
外国	-10.3296
帰って来た	-10.3301
命令	-10.3302
歴史的	-10.3305
1,	-10.3305
唯一の	-10.3307
がよい	-10.3307
わたしが	-10.3309
起こ	-10.3314
殘	-10.3314
比較	-10.3315
腕を	-10.3316
大会	-10.3318
益	-10.3322
男子	-10.3323
に見える	-10.3324
試験	-10.3326
行か	-10.3332
姉さん	-10.3333
光景	-10.3333
ゆっくり	-10.3345
かける	-10.3345
駄目	-10.3345
前後	-10.3347
篇	-10.3349
ことがあった	-10.3349
が出て	-10.3351
翁	-10.3352
刀を	-10.3353
英語	-10.3353
のかい	-10.3358
列車	-10.3359
闘	-10.3359
でき	-10.3361
と思うと	-10.3364
主人公	-10.3364
同志	-10.3365
ちよつと	-10.3365
探	-10.3366
まさか	-10.3366
までに	-10.3368
のですから	-10.3369
廊下	-10.337
人達	-10.3371
財産	-10.3373
一般に	-10.3374
用心	-10.3383
壇	-10.3384
云つて	-10.3385
トリ	-10.3386
勤め	-10.3388
神様	-10.3389
もって	-10.3394
塗	-10.3395
添	-10.3396
翼	-10.3396
何とか	-10.3398
室に	-10.3401
大丈夫	-10.3413
側に	-10.3419
拝	-10.3424
なくても	-10.3425
ろうと	-10.3426
いちばん	-10.3427
▁まあ	-10.3428
退屈	-10.3428
呼吸	-10.3429
爺	-10.3429
彼等は	-10.3431
を得た	-10.3437
構	-10.344
厚	-10.344
年間	-10.3441
音が	-10.3443
牧	-10.3444
ch	-10.3446
お願い	-10.3451
便	-10.3452
立てて	-10.3461
お前が	-10.3463
特徴	-10.3463
海の	-10.3465
にしろ	-10.3468
今夜は	-10.3468
執	-10.3469
練	-10.347
こちら	-10.3471
その中に	-10.3475
アイ	-10.348
の本	-10.3485
ませう	-10.3485
たって	-10.3491
▁声	-10.3491
沈黙	-10.3494
艦	-10.3495
ところから	-10.3495
サー	-10.3502
元の	-10.3502
叔父	-10.3503
返した	-10.3503
の多い	-10.3503
副	-10.3507
疑問	-10.351
▁18	-10.3511
氣が	-10.3513
試	-10.3517
▁L	-10.3518
画家	-10.3519
病院	-10.3522
誘	-10.3524
クリ	-10.3524
us	-10.3527
眠り	-10.3527
言つて	-10.353
博士は	-10.3532
無く	-10.3535
あれば	-10.3536
十三	-10.3539
ゲーム	-10.3542
ひそかに	-10.3545
パリ	-10.3545
大体	-10.3552
だれ	-10.3558
テン	-10.3558
門の	-10.3559
貴方	-10.3559
四人	-10.3561
つづいて	-10.3562
卵	-10.3563
',	-10.3564
こいつ	-10.357
によれば	-10.3572
ドン	-10.3573
乃至	-10.3573
建築	-10.3574
ありて	-10.3575
眼鏡	-10.3576
珠	-10.3576
惨	-10.3582
功	-10.3582
しや	-10.3583
昔から	-10.3584
邸	-10.3587
還	-10.3589
食べ	-10.3592
待	-10.3596
ここの	-10.3606
つる	-10.3608
年代	-10.3608
銀行	-10.361
x	-10.361
w	-10.3614
たて	-10.362
22	-10.3622
支配	-10.3623
僕に	-10.3628
表情	-10.3631
ウス	-10.3633
鍋	-10.3633
付けて	-10.3636
所有	-10.3636
していない	-10.3644
送り	-10.3644
チェ	-10.3645
国際	-10.3646
分る	-10.3648
やかな	-10.3655
物が	-10.3656
の力	-10.3662
聞え	-10.3662
ことができる	-10.3668
左右	-10.3669
補	-10.3671
顏を	-10.3673
なこと	-10.3674
の結果	-10.3674
わけだ	-10.3678
縮	-10.368
建設	-10.3685
しみ	-10.3685
菓子	-10.3686
案外	-10.3687
模様	-10.3687
笑う	-10.3688
流れて	-10.3692
わしは	-10.3694
実行	-10.3695
愛情	-10.3697
けん	-10.3698
日記	-10.37
宇	-10.3701
冷たい	-10.3703
の影	-10.3706
両親	-10.3706
構成	-10.3708
同じく	-10.3714
大人	-10.3715
ないので	-10.3715
一歩	-10.3715
鎌倉	-10.3719
一時間	-10.3722
面に	-10.3723
に出た	-10.3724
直ちに	-10.3724
をとって	-10.3726
大抵	-10.3728
といっても	-10.373
郎	-10.3732
卓	-10.3732
男女	-10.3735
しまつた	-10.3739
以外の	-10.3739
ぼう	-10.3741
塀	-10.3741
日が	-10.3742
吸	-10.3743
バル	-10.3744
ではなくて	-10.3746
いろんな	-10.375
往	-10.375
接	-10.3753
の家に	-10.3754
火を	-10.3756
六十	-10.3756
室の	-10.3758
うと	-10.376
触れ	-10.3763
烏	-10.3765
むかし	-10.3766
処に	-10.3768
分け	-10.3769
世紀	-10.377
買い	-10.3772
奪	-10.3781
恐	-10.3785
;	-10.3789
あとは	-10.3794
様の	-10.3795
信用	-10.3798
喜んで	-10.3799
格子	-10.3801
文明	-10.3813
真似	-10.3815
可能	-10.3815
猶	-10.3821
洞	-10.3823
録	-10.3826
悲	-10.3826
一軒	-10.3831
麦	-10.3832
婆さん	-10.3833
のごとき	-10.3834
るために	-10.3834
しょ	-10.3835
トル	-10.3835
を呼び	-10.3836
樂	-10.3837
その他の	-10.3838
の空	-10.3842
らせた	-10.3845
言葉が	-10.3847
!』	-10.3852
父が	-10.3855
途中で	-10.3858
に出	-10.3863
▁山	-10.3863
東洋	-10.3865
朝鮮	-10.387
だけを	-10.3871
敵の	-10.3872
やって来た	-10.3872
載	-10.3873
こうした	-10.3873
入れた	-10.3874
あがって	-10.3877
のではないか	-10.3878
きき	-10.3879
夫人の	-10.388
見せて	-10.3884
50	-10.3886
かも知れません	-10.389
方面	-10.3892
というものが	-10.3892
宛	-10.3898
▁/	-10.3904
はなし	-10.3906
▁H	-10.3911
見たい	-10.3912
相当	-10.3912
一切の	-10.3914
だとか	-10.3918
▁朝	-10.3921
ヂ	-10.3923
かさ	-10.3925
亡	-10.3926
譲	-10.3928
貸	-10.393
趣	-10.3933
▁今日	-10.3937
演劇	-10.394
がありました	-10.3942
▁5	-10.3944
船の	-10.3947
蒼	-10.3947
▁尤も	-10.3947
ぼく	-10.3955
給	-10.3956
まっ	-10.3959
渡り	-10.3959
付いて	-10.396
社長	-10.3965
▁0	-10.3966
水が	-10.3968
28	-10.3968
▁K	-10.3969
軍の	-10.3972
時刻	-10.3972
意見	-10.3977
広く	-10.3977
改めて	-10.3977
泰	-10.3978
に見	-10.3981
▁すなわち	-10.3985
最近	-10.3986
ウン	-10.399
地域	-10.399
それまで	-10.3991
汁	-10.3994
ものだから	-10.3995
結び	-10.3995
ヴァ	-10.3998
面白	-10.3999
耳を	-10.4004
浅草	-10.4008
我慢	-10.4009
してしまう	-10.4009
の一人	-10.4015
27	-10.4019
障子	-10.4021
知らなかった	-10.4021
頃から	-10.4027
脳	-10.4027
ジャン	-10.4028
みたいに	-10.403
めく	-10.4033
民族	-10.4034
の奥	-10.4034
睡	-10.4046
備	-10.4048
書を	-10.405
患者	-10.4052
わしの	-10.4052
見当	-10.4056
どん	-10.406
▁W	-10.407
明智	-10.4071
の外	-10.4073
行け	-10.4077
一向	-10.4078
脈	-10.4087
堅	-10.4087
うな	-10.4089
レコード	-10.4089
増加	-10.4091
長崎	-10.4094
邪魔	-10.4096
變	-10.4096
▁自分の	-10.4097
杖	-10.4097
ものも	-10.4099
チーム	-10.41
個	-10.4102
顔の	-10.4107
方向	-10.4108
スタ	-10.4108
御覧	-10.4109
おかしい	-10.411
下さる	-10.411
他人の	-10.4111
それじゃ	-10.4112
勝利	-10.4112
es	-10.4112
髪を	-10.4113
心得	-10.4113
我々	-10.4119
頼む	-10.4126
すつかり	-10.4126
路を	-10.4127
茶屋	-10.4128
ション	-10.4131
巻き	-10.4131
天地	-10.4132
鎖	-10.4132
通る	-10.4139
お嬢さん	-10.4143
笑いながら	-10.4145
父親	-10.4146
すり	-10.4152
影響	-10.4163
いたします	-10.4165
が来た	-10.4166
炎	-10.4168
一と	-10.4169
トラ	-10.417
心臓	-10.4176
貴女	-10.418
バイ	-10.418
日は	-10.418
ことば	-10.4181
でございました	-10.4181
幹	-10.4186
淡	-10.4188
ることは	-10.4189
たしか	-10.4193
夫は	-10.4204
答	-10.4204
取った	-10.4205
が見える	-10.4207
にゃ	-10.421
顔で	-10.4221
艇	-10.4222
ことになった	-10.4223
主張	-10.4231
事も	-10.4232
馬を	-10.4234
太い	-10.424
儘	-10.424
人気	-10.4242
承	-10.4243
見よう	-10.4249
人々が	-10.425
しかった	-10.425
にあらず	-10.4254
らす	-10.4254
その上に	-10.4256
之助は	-10.4262
部屋へ	-10.4264
と云い	-10.4266
ぱ	-10.4267
縦	-10.4267
みれば	-10.4271
の道	-10.4272
工合	-10.4272
お金	-10.4273
伯	-10.4274
んじゃ	-10.4275
じた	-10.4277
めいた	-10.4278
ではありませんか	-10.4279
と申す	-10.4281
の方を	-10.4282
であると	-10.4284
居て	-10.4286
工夫	-10.4288
ビー	-10.4291
ましい	-10.4292
決心	-10.4293
飲んで	-10.4293
してる	-10.4294
その頃	-10.4295
彼女に	-10.43
のいい	-10.4301
交通	-10.4304
愉快	-10.4308
なにも	-10.4311
泣いて	-10.4311
をつけ	-10.4312
作者	-10.4312
さんも	-10.4313
難い	-10.4315
苦労	-10.4316
▁F	-10.4317
出て来る	-10.4318
ur	-10.4318
涙を	-10.4318
渋	-10.4318
或いは	-10.432
どちら	-10.4321
狭	-10.4324
一行	-10.4325
▁これを	-10.4326
貴族	-10.4326
庭に	-10.4329
さきに	-10.4332
触	-10.4337
ものだった	-10.4339
二月	-10.4339
淋しい	-10.4341
をつけた	-10.4344
蓋	-10.4344
▁彼が	-10.4346
うか	-10.4346
る事	-10.4348
彼らは	-10.4355
自由に	-10.4358
木村	-10.4363
見せ	-10.4363
せよ	-10.4364
財	-10.4365
▁勿論	-10.4365
十八	-10.4367
中には	-10.4375
思つた	-10.4377
が無い	-10.4377
外へ	-10.438
は皆	-10.4382
俳句	-10.4386
上った	-10.4386
上野	-10.4386
始終	-10.4387
三郎は	-10.4389
さい	-10.439
非常な	-10.4391
憎	-10.4394
勝手に	-10.4396
サイ	-10.4402
役者	-10.4403
が来て	-10.4408
のじゃ	-10.4409
老人は	-10.4409
読者	-10.441
恰好	-10.4417
最高	-10.4421
顎	-10.4423
29	-10.4425
夏の	-10.4427
一月	-10.4432
宣	-10.4436
▁金	-10.4443
クロ	-10.4444
巧	-10.4444
斯	-10.4446
の歴史	-10.4453
▁m	-10.4453
持つ	-10.4453
幻	-10.4456
者も	-10.4456
走って	-10.4456
いっぱい	-10.4458
袴	-10.4459
真に	-10.4461
ワー	-10.4463
体の	-10.4464
圓	-10.4465
一八	-10.4465
製作	-10.4466
方々	-10.4473
尊敬	-10.4475
の仕事	-10.4481
デン	-10.4481
二階	-10.4484
せしめ	-10.4486
心は	-10.4489
羽織	-10.4493
々の	-10.4495
知れ	-10.4498
今度の	-10.4501
美しさ	-10.4502
形で	-10.4504
彼女を	-10.4504
顕	-10.4511
やしない	-10.4511
少くとも	-10.4512
以外に	-10.4512
卒業	-10.4516
の夜	-10.4521
26	-10.4522
名誉	-10.4526
四月	-10.4527
ロシア	-10.4528
憂	-10.453
命を	-10.453
揺	-10.4531
いつの間にか	-10.4534
負け	-10.4535
一々	-10.4535
と言つて	-10.4537
がよく	-10.4538
開発	-10.4539
もんだ	-10.4539
身体を	-10.4539
午	-10.454
五六	-10.4543
季	-10.4554
▁八	-10.4555
奧	-10.4557
▁10	-10.4558
の通り	-10.4558
といふのは	-10.4558
ないのである	-10.4561
したこと	-10.4563
という事	-10.4564
らして	-10.4567
作曲	-10.4568
幽	-10.4569
合せて	-10.4573
われわれの	-10.4575
人類	-10.4582
互に	-10.4582
あるもの	-10.4582
伊勢	-10.4583
彼等	-10.4584
自覚	-10.4585
いたので	-10.4586
こゝ	-10.4594
透	-10.4599
冬の	-10.4599
驚く	-10.46
以上に	-10.46
博	-10.4602
溝	-10.4603
出発	-10.4605
全国	-10.4607
脇	-10.4609
生れて	-10.461
誠	-10.4612
重大な	-10.4616
十七	-10.4618
かれる	-10.4619
をかけて	-10.4619
知ら	-10.4619
el	-10.4621
そこら	-10.4622
太刀	-10.4623
如何なる	-10.4624
縫	-10.4626
抱	-10.4629
持つて	-10.4629
に似た	-10.463
を入れて	-10.4632
なんと	-10.4632
たくない	-10.4634
価	-10.4635
▁こうして	-10.4641
膝を	-10.4642
事の	-10.4644
ちがい	-10.4646
街道	-10.4646
家で	-10.4647
▁ここに	-10.4649
娘は	-10.4649
羊	-10.465
いやな	-10.4652
もち	-10.4653
いざ	-10.4657
食堂	-10.4657
▁なぜ	-10.4663
▁そのうちに	-10.4664
怖	-10.4672
の上から	-10.4687
道理	-10.4689
ねば	-10.4689
ここまで	-10.469
と云つた	-10.4692
畜生	-10.4693
述べた	-10.4693
資本	-10.4696
こみ	-10.4697
緒	-10.4698
柿	-10.47
発表	-10.4702
考えていた	-10.4702
斬り	-10.4703
続	-10.4705
尤も	-10.4706
成程	-10.4707
柔	-10.4709
事だ	-10.4709
ないこと	-10.4711
聞えた	-10.4711
▁殊に	-10.4713
神社	-10.4714
汽車	-10.4714
が多く	-10.4716
兎に角	-10.4717
巨	-10.4719
拾	-10.4723
沙汰	-10.4728
二人とも	-10.4728
らし	-10.4728
娘が	-10.473
ダン	-10.4732
物質	-10.4734
扉	-10.4736
臭い	-10.4738
アッ	-10.4741
二郎	-10.4742
をば	-10.4742
の家へ	-10.4742
宵	-10.4745
焼き	-10.4748
であろうと	-10.4752
ねばならない	-10.4755
若者	-10.4755
完成	-10.4759
▁re	-10.4761
地震	-10.4762
世間の	-10.4764
鷹	-10.4764
以前の	-10.4764
自慢	-10.4767
知った	-10.4768
いか	-10.4769
わたくしは	-10.4771
離れて	-10.4771
予定	-10.4772
敗	-10.478
顔を見	-10.4781
かういふ	-10.4782
et	-10.4782
ひとりで	-10.4783
あの時	-10.4787
も無い	-10.479
去り	-10.479
つら	-10.4793
しないで	-10.4793
レイ	-10.4793
助は	-10.4798
の裏	-10.4798
くなる	-10.4801
▁もちろん	-10.4801
という言葉	-10.4802
下宿	-10.4803
にいた	-10.4804
怪物	-10.481
北海道	-10.4811
ガラス	-10.4811
テレビ	-10.4811
みました	-10.4812
ますます	-10.4814
この辺	-10.4816
なつて	-10.4819
用事	-10.4821
子供は	-10.4822
宜	-10.4823
しっかり	-10.4825
此処	-10.4825
ッド	-10.4826
情報	-10.4827
▁しかるに	-10.4827
六年	-10.4828
位置	-10.483
教え	-10.483
利益	-10.4832
壁に	-10.4835
小林	-10.4835
誰にも	-10.4836
八月	-10.4841
貧	-10.4841
だん	-10.4841
飼	-10.4841
芝	-10.4842
俺が	-10.4842
の実	-10.4844
に対し	-10.4844
することを	-10.4848
ぬけ	-10.485
をもつ	-10.4855
創	-10.4858
の底	-10.4859
尺	-10.4863
謝	-10.4863
はただ	-10.4866
日光	-10.4867
渡し	-10.4868
楼	-10.4868
なすった	-10.4869
se	-10.487
ないのだ	-10.4873
ふく	-10.4873
前へ	-10.4876
勘定	-10.4877
べく	-10.4878
土地の	-10.488
除	-10.4881
不思議に	-10.4882
經	-10.4886
云	-10.4887
まれた	-10.4887
ものゝ	-10.4888
構え	-10.4889
そこまで	-10.4892
落ちる	-10.4893
大切な	-10.4893
に入って	-10.4897
なんで	-10.4898
悪魔	-10.4899
頁	-10.4902
きれ	-10.4903
医師	-10.4905
並んで	-10.4905
見せる	-10.4907
イギリス	-10.4907
これら	-10.4908
悟	-10.4908
わかって	-10.4909
四つ	-10.4914
中村	-10.4914
九州	-10.4915
次は	-10.4916
者で	-10.4916
▁即ち	-10.4917
ごらん	-10.4919
乙	-10.492
偽	-10.4924
明け	-10.4924
芽	-10.4925
言語	-10.4927
千代	-10.4931
みち	-10.4933
付いた	-10.4933
河原	-10.4939
呪	-10.4939
贈	-10.494
侯	-10.4943
われて	-10.4946
わら	-10.4947
なれ	-10.4948
明るく	-10.4951
そうと	-10.4953
する事	-10.4954
母が	-10.4958
赤く	-10.4959
▁an	-10.496
つまらない	-10.4962
内閣	-10.4962
町に	-10.4963
矢張り	-10.4966
明か	-10.4968
タイ	-10.4969
を通じて	-10.4971
盆	-10.4971
取る	-10.4973
猛	-10.4977
警官	-10.4978
はどう	-10.4978
保護	-10.4979
いていた	-10.4981
口の	-10.4984
向うの	-10.4985
ナイ	-10.4986
今日まで	-10.4987
と思いました	-10.499
したので	-10.499
徹	-10.4991
人格	-10.4993
借	-10.4995
必ずしも	-10.4996
以て	-10.4999
証	-10.5
おいた	-10.5001
んでいた	-10.5002
ロン	-10.5003
るゝ	-10.5007
時期	-10.5007
いっしょに	-10.5007
直して	-10.5007
製造	-10.5008
迷惑	-10.5009
ふさ	-10.501
してくれた	-10.5013
鋭い	-10.5016
方で	-10.502
休み	-10.5022
相手に	-10.5023
輩	-10.5024
ことが出来る	-10.5027
税	-10.5029
してきた	-10.5031
バン	-10.5032
者と	-10.5033
構造	-10.5034
いかん	-10.5035
待て	-10.5036
などという	-10.5036
立場	-10.5037
塊	-10.5037
～	-10.5037
なんにも	-10.5037
物に	-10.5049
科学的	-10.5053
麗	-10.5054
試み	-10.5055
景色	-10.5056
登場	-10.5059
城の	-10.5063
問題は	-10.5067
部落	-10.5068
色に	-10.5069
人だ	-10.5073
に立って	-10.5082
の下で	-10.5086
っても	-10.5089
ハン	-10.5091
刃	-10.5093
の為に	-10.5093
▁さう	-10.5094
の眼	-10.5095
觀	-10.5099
傍に	-10.5101
▁とにかく	-10.5104
ものとして	-10.5105
ふん	-10.5105
の字	-10.5105
抱き	-10.5106
言葉は	-10.5108
坐り	-10.5111
歩み	-10.5111
楽しみ	-10.5112
▁given	-10.5114
一度も	-10.5116
団体	-10.512
銅	-10.512
口から	-10.512
無論	-10.5123
を感じ	-10.5125
植	-10.5125
停車場	-10.5125
掘	-10.5126
選挙	-10.5128
かして	-10.513
覆	-10.5131
勝手	-10.5131
告げ	-10.5132
るのを	-10.5135
いち	-10.5138
胴	-10.5141
あたかも	-10.5142
訪問	-10.5143
コー	-10.5144
ならなかった	-10.5145
j	-10.5145
粗	-10.5147
二人で	-10.5153
髯	-10.5159
則	-10.516
隠し	-10.5162
動機	-10.5163
喉	-10.5165
進み	-10.5166
不明	-10.5167
蒲団	-10.5167
戰	-10.5168
そこには	-10.5168
現われた	-10.517
窮	-10.5172
教会	-10.5175
安全	-10.5176
休	-10.5179
の前へ	-10.518
やかに	-10.5181
学校の	-10.5182
少ない	-10.5184
大事	-10.5185
であることを	-10.5188
あん	-10.5189
臭	-10.5189
特別	-10.5189
窓の	-10.5191
勝ち	-10.5192
られぬ	-10.5192
道は	-10.5195
織	-10.5196
餘	-10.5198
払い	-10.5199
ばか	-10.52
不可	-10.5201
などで	-10.5201
芸術家	-10.5203
君も	-10.5207
▁d	-10.5207
標	-10.5207
言いました	-10.5208
を得て	-10.5208
だい	-10.5208
組み	-10.5214
ゆか	-10.5215
そんなことは	-10.5215
瓶	-10.5215
進む	-10.5219
▁実際	-10.522
なつた	-10.522
へた	-10.5221
誌	-10.5222
いつた	-10.5226
然として	-10.5226
細工	-10.5227
ようであった	-10.5232
四日	-10.5232
してくれる	-10.5232
隠れ	-10.5232
扇	-10.5235
が出る	-10.5235
市民	-10.5242
かのように	-10.5245
派の	-10.5247
アリ	-10.5247
嬢	-10.525
敏	-10.525
場合に	-10.5252
犯罪	-10.5252
規定	-10.5254
に従って	-10.5254
嵐	-10.5256
オン	-10.5258
残っている	-10.526
忘れて	-10.526
いるうちに	-10.5261
十月	-10.5261
専門	-10.5261
武家	-10.5262
げて	-10.5262
寄せ	-10.5263
稽古	-10.5265
少々	-10.5268
蝶	-10.5268
怨	-10.5268
荷物	-10.5276
巣	-10.5279
を作る	-10.528
釜	-10.528
▁東京	-10.5281
ガー	-10.5285
殿様	-10.5289
キン	-10.5291
プラ	-10.5294
破壊	-10.5294
今更	-10.5294
を連れて	-10.5297
叔母	-10.5299
ツと	-10.5299
程の	-10.53
何かの	-10.5302
は大	-10.5303
に於ては	-10.5303
たかった	-10.5306
物は	-10.5309
と言い	-10.531
今年	-10.5311
ふたり	-10.5311
従って	-10.5312
五人	-10.5314
並	-10.5316
へん	-10.5316
なにを	-10.532
▁b	-10.5321
エー	-10.5323
らざる	-10.5327
面白く	-10.533
義務	-10.533
の形	-10.533
なっている	-10.5331
るやうに	-10.5333
事がある	-10.5334
の末	-10.5334
ぽ	-10.5334
九月	-10.5335
られました	-10.5335
しょう	-10.5336
しかない	-10.5336
入れる	-10.534
記者	-10.534
淵	-10.534
こんなことを	-10.5341
連れて	-10.5341
えらい	-10.5343
激しい	-10.5343
▁c	-10.5349
故郷	-10.535
の端	-10.5352
告	-10.5353
ピン	-10.5354
が出た	-10.5354
考えている	-10.5357
があれば	-10.536
ウム	-10.536
火事	-10.5361
しま	-10.5361
まさに	-10.5363
奉公	-10.5369
行かない	-10.5369
▁R	-10.537
開いた	-10.537
するところ	-10.5371
わず	-10.5371
走る	-10.5371
レス	-10.5372
一人は	-10.5373
インド	-10.5374
荘	-10.5375
銀座	-10.5378
七年	-10.5383
藪	-10.5384
響	-10.5384
伝統	-10.5386
を着て	-10.5387
忍	-10.5389
筒	-10.539
後は	-10.5391
迫	-10.5392
出ている	-10.5392
上から	-10.5395
光る	-10.5399
情熱	-10.5403
合わせて	-10.5405
統	-10.5406
ゾ	-10.5407
私と	-10.5407
そろそろ	-10.5409
の身	-10.5411
外套	-10.5412
真の	-10.5413
部下	-10.5413
トロ	-10.5415
となく	-10.5416
将来	-10.5417
るのだ	-10.5417
何もかも	-10.5422
の顔を	-10.5422
言は	-10.5423
邦	-10.5423
のを見て	-10.5424
加減	-10.5425
ランプ	-10.5427
大名	-10.5428
詠	-10.5432
適	-10.5434
あの人	-10.5436
鎮	-10.5437
臥	-10.5437
だと思う	-10.5437
船長	-10.5442
長い間	-10.5442
キー	-10.5444
展開	-10.5445
】	-10.5447
▁水	-10.5447
は少し	-10.5454
妻は	-10.5455
これだけ	-10.5455
兎	-10.546
逃げて	-10.5461
成長	-10.5463
奏	-10.5463
ハー	-10.5464
包み	-10.5467
磯	-10.547
となると	-10.5474
今や	-10.5479
〔	-10.548
st	-10.5481
道に	-10.5483
せない	-10.5491
ございます	-10.5491
するか	-10.5492
ピー	-10.5493
双	-10.5494
二百	-10.5494
をしながら	-10.5497
このごろ	-10.5499
果て	-10.5499
洋服	-10.5501
子供たち	-10.5502
ごとく	-10.5503
寝台	-10.5508
一週間	-10.5512
之丞	-10.5514
恋人	-10.5515
隣の	-10.5518
恵	-10.5519
性を	-10.5521
ックス	-10.5521
いるのだ	-10.5522
澄	-10.5522
ものはない	-10.5523
えゝ	-10.5523
泡	-10.5524
通りに	-10.5528
水に	-10.553
ないもの	-10.5531
なるべく	-10.5538
んですが	-10.5538
子供を	-10.5543
ジョン	-10.5545
謎	-10.5547
ばかりに	-10.5554
正しく	-10.5555
腐	-10.5556
そんなら	-10.5559
ほどに	-10.556
海軍	-10.5563
先へ	-10.5563
を出て	-10.5563
確	-10.5564
持っている	-10.5566
過去の	-10.5566
いるのは	-10.5571
に来て	-10.5573
聞える	-10.5575
あわてて	-10.5578
云々	-10.5579
の音が	-10.558
化粧	-10.558
の意味	-10.5581
寸	-10.5581
▁春	-10.5582
対立	-10.5582
を打ち	-10.5582
抜き	-10.5583
払	-10.5587
危	-10.5588
蛙	-10.5589
部の	-10.559
ませ	-10.5595
えば	-10.5597
慶	-10.5599
知っていた	-10.5604
だわ	-10.5604
新しく	-10.5604
有る	-10.5605
困った	-10.5606
おれが	-10.5608
の声が	-10.5608
を受ける	-10.5609
でござる	-10.5611
絶望	-10.5612
▁これで	-10.5616
詰め	-10.5621
幼	-10.5622
どうせ	-10.5623
いれば	-10.5624
軽い	-10.5625
粒	-10.5628
到	-10.5629
共同	-10.5629
二階の	-10.563
アルバム	-10.5631
▁彼等は	-10.5632
のことは	-10.5633
封	-10.5633
天才	-10.5637
涙が	-10.564
記事	-10.5641
ピアノ	-10.5641
かわ	-10.5644
▁[	-10.5644
すく	-10.5647
掛けて	-10.5648
見ている	-10.5648
われわれは	-10.565
係	-10.5653
然う	-10.5654
曇	-10.5654
てる	-10.5655
一面に	-10.5656
黒く	-10.5657
ちや	-10.5658
磨	-10.566
いましたが	-10.5661
文学の	-10.5661
はいつも	-10.5664
否定	-10.5665
叩き	-10.5665
魅力	-10.5666
セン	-10.5667
暦	-10.5667
火鉢	-10.5669
暮し	-10.5672
ゃ	-10.5672
人たちは	-10.5673
お茶	-10.5674
毎に	-10.5677
袂	-10.5678
離れた	-10.568
締め	-10.568
の間を	-10.5681
の光	-10.5681
ながらも	-10.5683
ようだった	-10.5684
v	-10.5685
おかみさん	-10.5686
▁{	-10.5687
のち	-10.5688
株	-10.5689
に帰	-10.5692
田の	-10.5693
代の	-10.5693
▁俺は	-10.5695
卿	-10.5695
日曜	-10.5695
▁私も	-10.5696
暁	-10.5697
帆	-10.5698
組合	-10.57
付けた	-10.5703
弟の	-10.5703
男に	-10.5703
環境	-10.5707
一夜	-10.5707
上で	-10.5707
をはじめ	-10.5708
親方	-10.571
かぎり	-10.5711
件	-10.5712
伝説	-10.5714
ふたたび	-10.5716
併し	-10.5716
最初	-10.5717
牢	-10.5718
を振り	-10.5724
あたりの	-10.5725
自分自身	-10.5726
杯	-10.5728
私達	-10.5728
おか	-10.5732
奈	-10.5734
さは	-10.5735
くだ	-10.5739
としたら	-10.5739
▁E	-10.5741
漁	-10.5744
でもなく	-10.5745
気がついた	-10.5745
藁	-10.5745
すぎて	-10.5749
こゝに	-10.5753
続けた	-10.5754
▁あなたは	-10.5757
*	-10.5758
潰	-10.5764
までが	-10.5764
戯曲	-10.5765
機嫌	-10.5768
▁G	-10.5769
あの女	-10.5769
様子で	-10.5772
論理	-10.5773
一家	-10.5774
んじ	-10.5777
わしい	-10.5778
コロ	-10.5782
クラブ	-10.5784
の頭	-10.5784
清水	-10.5786
やろう	-10.5787
▁何か	-10.5788
英国	-10.579
シーズン	-10.5803
期間	-10.5808
十一	-10.581
読む	-10.5811
距離	-10.5813
鉄砲	-10.5814
飛ぶ	-10.5815
いたのである	-10.5816
arr	-10.5819
珍しい	-10.5824
出すと	-10.5824
折角	-10.5825
こも	-10.5825
悉く	-10.5826
下駄	-10.5826
その人	-10.5828
焦	-10.5828
奥様	-10.5832
せずに	-10.5832
遇	-10.5832
本人	-10.5833
そんなもの	-10.5833
横浜	-10.584
いな	-10.5841
一面	-10.5842
気持が	-10.5844
垂れ	-10.5845
つたり	-10.5845
六月	-10.585
あがる	-10.5852
は今	-10.5852
っていて	-10.5852
地獄	-10.5855
いえば	-10.5858
所を	-10.5859
餅	-10.586
小鳥	-10.5862
好意	-10.5863
曳	-10.5865
若い女	-10.5867
以	-10.587
チン	-10.5872
の方で	-10.5873
げな	-10.5873
くらゐ	-10.5874
室内	-10.5874
開け	-10.5878
▁そこには	-10.5878
先の	-10.5878
採	-10.5884
番頭	-10.5884
生の	-10.5885
にいる	-10.5885
すこと	-10.5885
歸	-10.5886
権利	-10.5891
泥棒	-10.5891
資格	-10.5893
飲む	-10.5896
法師	-10.5897
錦	-10.5898
親類	-10.59
違ひ	-10.59
なければなりません	-10.5904
をあげて	-10.5906
わけです	-10.5907
衛	-10.5909
ようになって	-10.591
はそれを	-10.5911
一致	-10.5912
お客	-10.5914
午前	-10.5914
後ろ	-10.5915
この間	-10.592
十四	-10.5921
老婆	-10.5921
妖	-10.5922
意義	-10.5923
かぬ	-10.5923
にくい	-10.5924
されない	-10.5925
ゐました	-10.5926
鼓	-10.593
万事	-10.593
ザー	-10.5931
どころか	-10.5931
の命	-10.5932
テーブル	-10.5934
ことごとく	-10.5936
種の	-10.5936
如何にも	-10.5937
のところに	-10.5939
の手紙	-10.5941
からです	-10.5941
子と	-10.5943
効	-10.5951
書斎	-10.5952
することが	-10.5953
立てる	-10.5955
生まれ	-10.5956
能く	-10.5956
われる	-10.5957
かゝる	-10.5957
開始	-10.5964
私たちの	-10.5967
譯	-10.597
の内	-10.5971
クレ	-10.5973
乘	-10.5976
つま	-10.5977
だいぶ	-10.5978
書生	-10.5981
陳	-10.5981
かろう	-10.5983
▁同	-10.5984
こころ	-10.5985
塞	-10.5985
まもなく	-10.5985
かれは	-10.5987
して居た	-10.5988
主として	-10.5991
00	-10.5994
の様に	-10.5994
単なる	-10.5995
▁御	-10.5998
ニア	-10.6
我々は	-10.6003
翌日	-10.6007
無理に	-10.6008
卷	-10.601
は勿論	-10.6011
▁+	-10.6012
の事を	-10.6013
▁彼らは	-10.6014
ないと	-10.602
したように	-10.6022
七月	-10.6023
季節	-10.6024
▁本	-10.6025
誰でも	-10.6028
足りない	-10.6028
のことである	-10.6029
ent	-10.6029
残り	-10.603
向こう	-10.603
おじさん	-10.603
込め	-10.6031
ぷ	-10.6031
いるので	-10.6034
縁側	-10.6034
誰だ	-10.6035
経営	-10.604
よそ	-10.6041
女王	-10.6041
つつある	-10.6041
やつた	-10.6042
という意味	-10.6046
且つ	-10.6048
大事な	-10.6049
襖	-10.6054
茶碗	-10.6054
嫌い	-10.6058
相手は	-10.6058
ぐら	-10.6059
に至る	-10.6059
刑	-10.606
塵	-10.6062
寝て	-10.6064
犯	-10.6064
要素	-10.6066
七日	-10.6066
飾り	-10.6066
入つて	-10.6067
蹴	-10.6067
歴	-10.6068
一部	-10.607
講	-10.6071
を経て	-10.6076
責め	-10.6077
開き	-10.6078
境遇	-10.608
らい	-10.6081
働いて	-10.6082
大した	-10.6083
逢	-10.6091
の姿が	-10.6093
終った	-10.6093
秀吉	-10.6096
ほしい	-10.6099
成立	-10.6099
お帰り	-10.6101
つれ	-10.6102
廣	-10.6105
感動	-10.6107
以降	-10.6108
抱え	-10.6109
▁8	-10.6109
殺人	-10.6109
このまま	-10.6112
テル	-10.6113
第一の	-10.6116
シテ	-10.6116
日頃	-10.6117
といっしょに	-10.6119
禅	-10.6119
外から	-10.6121
事である	-10.6122
紐	-10.6124
ビル	-10.6126
てえ	-10.6126
だけだ	-10.6127
階段	-10.6128
むずかしい	-10.613
邪	-10.6132
むる	-10.6133
お方	-10.6137
造り	-10.6137
気の毒	-10.6137
貰う	-10.6138
歩いている	-10.6138
感心	-10.6139
ro	-10.6141
るる	-10.6141
問題に	-10.6143
と見	-10.6145
ないから	-10.6147
品物	-10.6147
さす	-10.6149
裏の	-10.6149
Z	-10.6151
メン	-10.6152
ときどき	-10.6155
▁なるほど	-10.6155
れている	-10.6155
が云った	-10.6156
いたしました	-10.6159
はよく	-10.616
を抱いて	-10.6161
わき	-10.6162
そんな事	-10.6165
彼には	-10.6166
猪	-10.6166
らせる	-10.6166
民衆	-10.6167
生活に	-10.6168
痛い	-10.6168
芸者	-10.6169
出來	-10.6169
寛	-10.6172
ますから	-10.6172
霞	-10.6173
邊	-10.6173
血を	-10.6174
に来る	-10.6176
逆に	-10.6177
を与え	-10.6177
ちら	-10.6177
貴様	-10.6182
をもっている	-10.6182
寂しい	-10.6183
を示す	-10.6184
ためには	-10.6189
▁array	-10.6194
はいない	-10.6195
入口	-10.6195
人である	-10.6198
人間に	-10.6199
血の	-10.6199
▁n	-10.6201
にわかに	-10.6203
聴	-10.6203
十時	-10.6204
傘	-10.6205
伝え	-10.6206
余りに	-10.6206
廻る	-10.6206
ひろ	-10.6208
中を	-10.6213
ion	-10.6213
形態	-10.6214
キャ	-10.6215
奉行	-10.6216
行こう	-10.6217
に手を	-10.6219
大なる	-10.622
生物	-10.6227
囲	-10.623
系統	-10.6232
おった	-10.6233
▁N	-10.6234
を呼んで	-10.6234
やさしい	-10.6237
背中	-10.6238
ゐます	-10.6239
山を	-10.624
に立ち	-10.624
るのである	-10.6241
リング	-10.6242
側の	-10.6243
31	-10.6244
死骸	-10.6244
聴いて	-10.6246
を取る	-10.6247
きいて	-10.6248
よろしく	-10.625
のだろうか	-10.6251
翌	-10.6251
一〇	-10.6252
合わせ	-10.6252
しており	-10.6256
皮膚	-10.6257
に入り	-10.6257
||	-10.6261
を聞き	-10.6262
その日	-10.6265
掃除	-10.6266
薄い	-10.6268
不平	-10.6269
ヨーロッパ	-10.6269
蘇	-10.6271
シリーズ	-10.6272
中心	-10.6274
めき	-10.6274
花を	-10.6275
-1	-10.6276
立てた	-10.6278
返事を	-10.6282
流し	-10.6283
と思っていた	-10.6285
唇を	-10.6285
声に	-10.6286
イエス	-10.6286
一二	-10.629
になってしまった	-10.6291
▁Python	-10.6295
五百	-10.6295
草の	-10.6295
彼ら	-10.6296
慰め	-10.6297
ツク	-10.6298
君と	-10.6299
制作	-10.6299
皺	-10.63
▁×	-10.63
昌	-10.6302
ゆえに	-10.6303
どこの	-10.6305
のあいだ	-10.6307
子ども	-10.6308
ショ	-10.6308
の面	-10.631
もしくは	-10.6311
附け	-10.6311
んですもの	-10.6313
優勝	-10.6314
をもつて	-10.6315
地下	-10.6317
その上	-10.6319
わけである	-10.6322
さうです	-10.6323
でしたが	-10.6324
ろうとする	-10.6334
ばし	-10.6335
残る	-10.6336
さる	-10.6337
通った	-10.634
彩	-10.6343
大和	-10.6343
門を	-10.6344
なくては	-10.6344
専	-10.6347
烈	-10.6348
五分	-10.6348
下へ	-10.6349
看護婦	-10.6353
目で	-10.6353
収録	-10.6355
彼自身	-10.6357
ぎり	-10.6358
少年の	-10.6358
鳥の	-10.6359
哀	-10.636
替え	-10.6361
わかり	-10.6361
鈍	-10.6362
熱心に	-10.6364
域	-10.6366
旨	-10.6367
尖	-10.637
頂	-10.637
買って	-10.637
豚	-10.6372
▁わたくしは	-10.6372
神田	-10.638
起る	-10.6383
硝子	-10.6384
準備	-10.6387
御馳走	-10.6387
坐って	-10.639
へ行った	-10.639
ゆうべ	-10.6391
たいてい	-10.6392
の部屋	-10.6393
兵隊	-10.6395
斷	-10.6397
実現	-10.6398
松の	-10.6404
はならぬ	-10.6408
でござります	-10.6411
の男	-10.6412
ことから	-10.6416
起った	-10.6416
を待つ	-10.6417
大勢	-10.642
勤	-10.642
の美	-10.642
藏	-10.6425
ボー	-10.6426
はなかつた	-10.6427
リイ	-10.6428
かる	-10.643
を作り	-10.6431
親切	-10.6431
検事	-10.6435
のですよ	-10.6436
ーズ	-10.6437
それこそ	-10.6439
武器	-10.6441
酌	-10.6442
am	-10.6445
覚えて	-10.6447
成り	-10.645
を与える	-10.645
ますが	-10.6456
やうだ	-10.6456
凄	-10.6457
色彩	-10.646
股	-10.6462
指導	-10.6463
酒の	-10.6463
▁that	-10.6463
はある	-10.6465
しげ	-10.6465
▁ちょうど	-10.6467
最後	-10.6467
爾	-10.6469
躍	-10.6471
と称	-10.6472
素人	-10.6472
移	-10.6474
吉田	-10.6475
斬	-10.6477
唱	-10.6477
なす	-10.6479
響き	-10.648
を押し	-10.6482
▁function	-10.6482
上手	-10.6483
げた	-10.6486
卒	-10.6487
仕方	-10.6487
瓦	-10.6488
日本に	-10.649
→	-10.6492
人生の	-10.6494
飛行	-10.6496
のであらう	-10.6497
胸が	-10.65
頂戴	-10.6502
しています	-10.6503
生きる	-10.6503
る時	-10.6505
這い	-10.6506
整	-10.6507
農民	-10.651
居ない	-10.6513
string	-10.6515
ようす	-10.6517
ようになる	-10.6518
していました	-10.652
争	-10.652
のかも知れない	-10.6523
申します	-10.6523
寂	-10.6525
昼間	-10.6526
まづ	-10.6531
ぼくは	-10.6533
の二	-10.6533
対象	-10.6534
よろこび	-10.6535
重要な	-10.6536
用の	-10.6537
しましょう	-10.6538
に出る	-10.6538
遊びに	-10.6539
まれて	-10.6539
すか	-10.6541
交際	-10.6541
に向かって	-10.6542
の手に	-10.6543
風俗	-10.6543
こいつは	-10.6544
血が	-10.6546
平気で	-10.6546
意気	-10.6547
見えて	-10.6547
問い	-10.6548
そのために	-10.655
奥の	-10.6552
発達	-10.6554
足が	-10.6555
一つは	-10.6555
やすい	-10.6556
まじ	-10.6556
空を	-10.6557
",	-10.6558
ガス	-10.6561
なりと	-10.6564
に入れて	-10.6565
の悪い	-10.6566
へも	-10.6566
クス	-10.6567
しなければ	-10.6567
事務所	-10.6568
年齢	-10.6571
するのである	-10.6573
今後	-10.6574
っけ	-10.6577
兵衞	-10.6577
▁そこに	-10.6578
左様	-10.6578
一族	-10.6579
リーグ	-10.6582
んじゃない	-10.6585
にすぎない	-10.6587
絶対に	-10.6589
故に	-10.659
▁そしてその	-10.6591
犠牲	-10.6592
謀	-10.6593
怪我	-10.6593
集まって	-10.6594
誠に	-10.6596
グラ	-10.6597
するのが	-10.6599
黄金	-10.6604
予想	-10.6605
こま	-10.6608
こん	-10.6609
はなはだ	-10.6609
わない	-10.6613
最早	-10.6616
操	-10.6617
ってしまう	-10.6618
なかろう	-10.6618
演奏	-10.6618
折り	-10.6621
と呼ぶ	-10.6622
訓	-10.6625
多くは	-10.6626
シェ	-10.6628
残念	-10.6632
あがり	-10.6633
はいけない	-10.6637
なのか	-10.6637
可愛い	-10.6638
ir	-10.6638
チャン	-10.6641
▁今日は	-10.6641
いたり	-10.6641
しようとする	-10.6642
知らせ	-10.6649
ちゃんは	-10.6649
に於いて	-10.6649
みに	-10.665
くらいの	-10.665
釘	-10.665
工業	-10.6651
浪人	-10.6652
匂	-10.6653
相変らず	-10.6654
電燈	-10.6655
ございません	-10.6659
会議	-10.666
あや	-10.6661
証明	-10.6666
変って	-10.6667
炉	-10.6676
曹操	-10.6677
音を	-10.6678
でございましょう	-10.668
呟いた	-10.6687
濃	-10.6687
本能	-10.669
請	-10.6693
▁みんな	-10.6693
仏教	-10.6695
が一つ	-10.6705
お前に	-10.6707
そち	-10.6708
宿の	-10.671
第一に	-10.6711
があるから	-10.6714
知れぬ	-10.6714
をなす	-10.6715
かぶ	-10.6719
義理	-10.6719
攻め	-10.672
みずから	-10.6722
たびに	-10.6722
先生に	-10.6723
師の	-10.6723
▁日本の	-10.6727
のほかに	-10.6728
40	-10.6728
進め	-10.6729
もらった	-10.673
を得る	-10.6733
一本の	-10.6733
メートル	-10.6734
次郎は	-10.6736
▁例えば	-10.6739
裾	-10.6742
者として	-10.6744
地を	-10.6744
掘り	-10.6744
奈良	-10.6744
ついている	-10.6745
発売	-10.6746
っぽい	-10.6748
悦	-10.6749
さで	-10.6749
〉	-10.675
になつてゐる	-10.6752
へ来て	-10.6753
お待ち	-10.6757
〈	-10.676
評価	-10.6761
元来	-10.6762
代りに	-10.6763
ことには	-10.6763
何事	-10.6765
十二時	-10.6769
桶	-10.677
校長	-10.6772
凍	-10.6777
考えると	-10.6778
もとの	-10.678
葉子	-10.6782
マイ	-10.6782
もよく	-10.6782
けり	-10.6784
ローマ	-10.6784
無し	-10.6785
整理	-10.6786
鬱	-10.6787
のだよ	-10.6788
ないのです	-10.6788
が出来	-10.679
内で	-10.6791
鞭	-10.6791
芋	-10.6797
とこ	-10.6799
看板	-10.6799
&	-10.6801
施	-10.6803
らずに	-10.6803
幕府	-10.6805
つぎ	-10.6805
例えば	-10.6807
顔は	-10.6809
捨てて	-10.6813
飛んだ	-10.6813
と思っている	-10.6817
々に	-10.6817
倒	-10.6818
暮れ	-10.6819
ッた	-10.6821
どこから	-10.6822
一定の	-10.6823
際に	-10.6824
鳩	-10.6824
江戸の	-10.6825
がって	-10.6826
方角	-10.683
辛	-10.6834
彼も	-10.6834
解放	-10.6838
月の	-10.6839
何という	-10.6839
宿屋	-10.684
あるまい	-10.6842
▁O	-10.6842
を投げ	-10.6844
▁同時に	-10.6844
免	-10.6845
創作	-10.6845
周囲	-10.6848
臺	-10.6853
ではなかつた	-10.6854
肩に	-10.6855
施設	-10.6855
ニュー	-10.6856
ランド	-10.6857
餌	-10.686
者である	-10.686
成績	-10.6862
事件の	-10.6863
天気	-10.6866
閉じ	-10.6868
かせ	-10.6868
秒	-10.6868
言葉で	-10.6869
続き	-10.687
三百	-10.687
材	-10.6872
巡	-10.6872
登り	-10.6874
今から	-10.6875
暑い	-10.6879
むき	-10.6882
に身を	-10.6882
剥	-10.6883
ケン	-10.6883
できた	-10.6887
桑	-10.6889
一旦	-10.6892
ることを	-10.6892
これほど	-10.6896
帽	-10.6897
馬は	-10.6898
食べる	-10.6898
と呼ばれる	-10.6898
天の	-10.6899
そっくり	-10.6901
人情	-10.6905
に對して	-10.6906
▁天	-10.6906
十一時	-10.6906
暗く	-10.6907
でもあった	-10.6907
よかろう	-10.6913
奇妙な	-10.6916
にあり	-10.6918
十二月	-10.6919
可い	-10.6921
みよう	-10.6924
孔子	-10.6924
との関係	-10.6925
序	-10.6925
交渉	-10.6927
の諸	-10.6928
日本語	-10.6928
ぜひ	-10.6928
些	-10.6929
取つて	-10.693
伸び	-10.693
を打つ	-10.6931
おもしろい	-10.6932
而	-10.6932
桂	-10.6933
興奮	-10.6938
恐ろしく	-10.6938
なりません	-10.6941
そのような	-10.6941
茶を	-10.6947
ノー	-10.6948
▁かくて	-10.695
▁どうも	-10.6954
生きた	-10.6958
築	-10.6959
旅人	-10.696
書いてある	-10.6962
いっそう	-10.6964
づく	-10.6967
焔	-10.6968
なくなつた	-10.697
うけ	-10.697
山は	-10.6973
畫	-10.6977
咲	-10.6978
湿	-10.6978
何やら	-10.6983
市場	-10.6983
はいり	-10.6984
ポン	-10.6984
狸	-10.6985
いるのです	-10.6987
好み	-10.6989
行けば	-10.6989
展	-10.6989
關係	-10.6992
替	-10.6994
グリ	-10.6995
塾	-10.6995
馬鹿に	-10.6997
どうにも	-10.6997
橋の	-10.6998
の高い	-10.6999
叫ぶ	-10.6999
言を	-10.6999
倒れ	-10.7003
獄	-10.7004
貰った	-10.7004
▁ア	-10.7004
が見えた	-10.7005
綺麗な	-10.701
によりて	-10.7011
呼んで	-10.7011
傍	-10.7012
要するに	-10.7014
戸を	-10.7015
何よりも	-10.7016
上がって	-10.7019
あとから	-10.7022
主人は	-10.7022
違った	-10.7024
武者	-10.7025
嬉しい	-10.7026
左の	-10.7028
曲者	-10.703
式の	-10.703
考へる	-10.703
Q	-10.7033
戒	-10.7036
くも	-10.7037
濁	-10.7037
なことを	-10.7038
臨	-10.704
招	-10.704
わぬ	-10.7042
んな	-10.7043
来り	-10.7044
たのである	-10.7045
▁若し	-10.7046
というのである	-10.7049
養子	-10.7049
の人々	-10.705
のための	-10.705
比較的	-10.7052
の念	-10.7053
樣に	-10.7055
いられる	-10.7055
平次は	-10.7056
騎	-10.7058
見ていた	-10.7058
通信	-10.7059
男の子	-10.706
たとい	-10.7061
の底に	-10.7062
はずだ	-10.7062
二十年	-10.7064
戦闘	-10.7065
最初に	-10.7065
開けて	-10.7065
内部	-10.7066
圖	-10.7067
出て行った	-10.7067
未来	-10.7069
縛	-10.7075
モノ	-10.7075
をひき	-10.7077
流の	-10.7078
勝負	-10.7081
▁従って	-10.7085
地面	-10.7088
溜	-10.7089
寒さ	-10.709
輝	-10.7091
十一月	-10.7092
はいった	-10.7092
協力	-10.7095
閣下	-10.7097
男性	-10.7097
中から	-10.7098
震	-10.7098
そいつは	-10.71
ゴー	-10.71
って来る	-10.71
都会	-10.7102
環	-10.7104
出場	-10.7107
といつて	-10.7107
の間から	-10.7107
運び	-10.7108
っていました	-10.7109
て居た	-10.7112
名称	-10.7113
タル	-10.7113
よって	-10.7114
聞か	-10.7115
埋	-10.7118
リス	-10.7119
なければならなかった	-10.712
動いて	-10.7121
▁range	-10.7121
涼	-10.7125
等は	-10.7125
たもの	-10.7126
カイ	-10.7126
具合	-10.7127
到底	-10.7129
もらって	-10.7129
に移	-10.713
資	-10.7131
参りました	-10.7132
かへ	-10.7133
きわめて	-10.714
酸	-10.714
かかり	-10.714
孤独	-10.714
優しい	-10.7141
絶対	-10.7142
夜は	-10.7143
残った	-10.7143
続く	-10.7144
らなかつた	-10.7145
達の	-10.7145
昇	-10.7146
がら	-10.7148
私たちは	-10.7148
聴き	-10.7149
ながめ	-10.715
ここは	-10.715
担	-10.7151
処で	-10.7153
動作	-10.7154
帝国	-10.7157
▁男は	-10.7161
かゝ	-10.7163
相手が	-10.7165
少年は	-10.7165
庁	-10.7165
落した	-10.7166
と思ひます	-10.7176
欲しい	-10.7176
わす	-10.7177
をつく	-10.7177
に就て	-10.7178
ようなもの	-10.7178
僕を	-10.7179
ジー	-10.718
何より	-10.718
協会	-10.7182
くさ	-10.7183
眼は	-10.7184
癒	-10.7187
嘆	-10.7188
論文	-10.7188
開催	-10.719
痕	-10.719
支那の	-10.7191
ような気がした	-10.7191
鼻を	-10.7192
ホー	-10.7194
トー	-10.7197
と申します	-10.7197
おのれ	-10.7199
はつきり	-10.7202
蝋燭	-10.7204
のであろうか	-10.7204
まっている	-10.7204
べつ	-10.7206
まく	-10.7206
競争	-10.7207
▁I	-10.7207
に対しては	-10.7208
お話し	-10.7213
だぞ	-10.7213
中へ	-10.7214
現代の	-10.7215
というものを	-10.7216
つめ	-10.7216
院の	-10.7218
は非常に	-10.7219
様が	-10.7224
を感じて	-10.7229
巡査	-10.7231
色々	-10.7231
創造	-10.7232
奴は	-10.7235
堤	-10.7236
づれ	-10.7237
を知らない	-10.7237
▁僕	-10.7239
依	-10.7242
一種	-10.7242
滑	-10.7242
ばた	-10.7242
那	-10.7242
山田	-10.7242
▁おれは	-10.7249
を聞いた	-10.7249
政治家	-10.7251
必要な	-10.7253
あがった	-10.7257
▁明治	-10.7258
ばかりだ	-10.7259
噛み	-10.726
種々の	-10.7261
は実に	-10.7262
としている	-10.7263
戻り	-10.7264
こちらへ	-10.7265
英雄	-10.7267
絶え	-10.7274
▁丁度	-10.7275
第四	-10.7275
か何か	-10.7275
分析	-10.7277
巨大な	-10.7278
嘉	-10.728
好奇心	-10.7281
全身	-10.7281
萩	-10.7282
おなじ	-10.7285
いいか	-10.7285
十分に	-10.7286
たちに	-10.7291
屋へ	-10.7293
はあるまい	-10.7293
紺	-10.7295
親子	-10.7297
を離れて	-10.7298
いら	-10.7298
九郎	-10.7299
自身が	-10.73
スキー	-10.7301
標準	-10.7302
名古屋	-10.7302
煩	-10.7303
近づいて	-10.7304
っていない	-10.7304
を書いて	-10.7305
まね	-10.7306
なくとも	-10.7306
▁あたし	-10.7309
二重	-10.7309
このような	-10.7312
それなら	-10.7313
吸い	-10.7313
服装	-10.7316
てくれ	-10.7316
モー	-10.7316
罵	-10.7318
の首	-10.7318
わけではない	-10.7323
簡単に	-10.7324
巴里	-10.7325
なされ	-10.7326
もよい	-10.7327
一人が	-10.7328
まえに	-10.7331
を有する	-10.7331
嫉妬	-10.7334
ちょいと	-10.7335
と同じように	-10.7336
れぬ	-10.7336
和尚	-10.7337
いられない	-10.7337
度に	-10.7337
▁概要	-10.7338
歎	-10.7339
を作って	-10.7341
て行く	-10.7342
がありません	-10.7344
いわば	-10.7347
なんという	-10.7348
狼	-10.7348
ネー	-10.735
奴だ	-10.7352
警戒	-10.7352
のだらう	-10.7352
賛成	-10.7357
その辺	-10.7359
▁中	-10.7359
其処	-10.736
▁花	-10.736
残って	-10.7361
車を	-10.7362
を行う	-10.7366
するという	-10.7371
つづけた	-10.7373
を書いた	-10.7373
少なくとも	-10.7374
皇帝	-10.7375
八年	-10.7375
と言つた	-10.7375
▁【	-10.7377
半蔵	-10.7378
項	-10.7378
荒れ	-10.7382
九時	-10.7382
ヘエ	-10.7382
連続	-10.7383
答える	-10.7384
本を	-10.7386
可愛	-10.7386
となつて	-10.7386
どこまでも	-10.7389
家内	-10.739
勢い	-10.7392
爺さん	-10.7393
惜	-10.74
▁第二	-10.7402
よこ	-10.7403
塗り	-10.7405
憤	-10.7406
びた	-10.7408
▁わが	-10.741
するため	-10.741
咳	-10.7413
ほら	-10.7414
に入った	-10.7419
それには	-10.7419
借り	-10.7423
同一	-10.7426
願い	-10.743
かえる	-10.7433
現れた	-10.7433
継	-10.7433
漂	-10.7435
▁なぜなら	-10.7437
政治的	-10.7439
先方	-10.7444
わずか	-10.7445
モデル	-10.7446
無事に	-10.7447
おめえ	-10.7448
せっかく	-10.7449
えない	-10.7449
徳川	-10.7449
誤解	-10.745
こっちへ	-10.745
ation	-10.745
十九	-10.7451
そんな事を	-10.7454
ともに	-10.7455
読んだ	-10.7455
からぬ	-10.7456
ところがある	-10.7456
交換	-10.7457
歌を	-10.7458
さぬ	-10.7459
した時	-10.7459
物音	-10.7461
て来る	-10.7462
いささか	-10.7463
船は	-10.7463
ユー	-10.7463
話の	-10.7465
伯父	-10.7466
付く	-10.7466
機能	-10.7466
ぜん	-10.7471
as	-10.7472
突っ	-10.7473
船が	-10.7473
奴が	-10.7477
オイ	-10.7478
ましょうか	-10.748
雛	-10.7481
▁然るに	-10.7484
行きます	-10.7485
捨	-10.7485
▁次に	-10.7488
を読んで	-10.749
父母	-10.7493
米国	-10.7495
枯	-10.7498
はっきりと	-10.75
去って	-10.75
兵衛は	-10.7501
に向つて	-10.7502
さえも	-10.7504
フラン	-10.7504
停	-10.7505
人間を	-10.7508
石を	-10.7509
こわ	-10.7514
を書く	-10.7516
寝床	-10.7518
分った	-10.752
を引いて	-10.7521
しめた	-10.7525
埋め	-10.7525
戸口	-10.7528
死な	-10.7528
すぎた	-10.753
ic	-10.7531
かま	-10.7531
ばら	-10.7532
佳	-10.7539
方がいい	-10.7544
ジョ	-10.7546
リヤ	-10.7546
石川	-10.755
是れ	-10.755
迎へ	-10.7552
素子	-10.7553
ドル	-10.7555
一般の	-10.7556
崩	-10.7557
きら	-10.7558
笹	-10.756
へい	-10.7561
無駄	-10.7566
イル	-10.7567
凡	-10.757
に行って	-10.757
雲の	-10.7571
閃	-10.7575
さわ	-10.7575
といふものは	-10.7577
さり	-10.7579
少い	-10.758
わたくしの	-10.7584
それより	-10.7584
知ってる	-10.7587
不可能	-10.7587
河岸	-10.7587
妹の	-10.7588
東京へ	-10.7589
の類	-10.7593
▁たとえば	-10.7594
架	-10.7594
薫	-10.7597
逃げる	-10.7598
のうちで	-10.7599
諸国	-10.76
とすると	-10.76
カリ	-10.7602
下げ	-10.7602
順序	-10.7603
済	-10.7603
関東	-10.7607
椅子に	-10.7608
苦心	-10.7611
今に	-10.7612
もあれば	-10.7613
毎年	-10.7613
やみ	-10.7616
救い	-10.7617
セル	-10.7618
迎え	-10.7622
日々	-10.7624
をやる	-10.7626
胸の	-10.7629
醜	-10.763
はれ	-10.763
出ない	-10.7633
避け	-10.7634
訣	-10.7634
りゃ	-10.7634
思案	-10.7635
余裕	-10.7635
然たる	-10.7636
殺した	-10.7639
それにしても	-10.7639
職人	-10.7639
をかけ	-10.764
渡した	-10.764
駄目だ	-10.7641
ていない	-10.7641
だろうと	-10.7644
慕	-10.7645
日には	-10.7651
信頼	-10.7652
抵抗	-10.7652
安心して	-10.7653
明り	-10.7654
廻し	-10.7656
を読む	-10.7657
出入り	-10.7658
あとの	-10.7659
の関係	-10.7662
ぐらいの	-10.7663
二十日	-10.7664
葛	-10.7664
▁f	-10.7665
革	-10.7665
池の	-10.7665
姿が	-10.7669
拵え	-10.767
以上は	-10.767
凡て	-10.767
本来	-10.7671
のであるから	-10.7672
発明	-10.7673
る者	-10.7673
苛	-10.7674
畠	-10.7674
けっして	-10.7674
出かける	-10.7675
変更	-10.7676
達が	-10.7678
康	-10.768
薄暗い	-10.7683
必然	-10.7684
ブルジョア	-10.7685
事で	-10.7686
部隊	-10.7686
結論	-10.7687
影を	-10.7688
の火	-10.7688
工事	-10.7689
老人の	-10.769
もあろう	-10.769
作者の	-10.7691
足で	-10.7694
処へ	-10.7694
扱い	-10.7694
庫	-10.7695
なよ	-10.7696
尽	-10.7696
たき	-10.7697
平は	-10.7699
燕	-10.77
警	-10.77
しむ	-10.7701
▁あれ	-10.7703
やめ	-10.7705
ひっ	-10.7705
桐	-10.7707
薪	-10.7707
のあいだに	-10.7709
現に	-10.7709
閣	-10.7712
の皮	-10.7713
あちこち	-10.7715
わった	-10.7716
好く	-10.7717
して下さい	-10.7718
指揮	-10.7718
して行く	-10.7718
蜂	-10.772
ラス	-10.772
描き	-10.772
▁白	-10.7721
▁いつも	-10.7721
とはいえ	-10.7722
留め	-10.7729
になれば	-10.773
会話	-10.7731
形を	-10.7732
界の	-10.7732
理窟	-10.7734
不審	-10.7735
先輩	-10.7736
▁北	-10.7737
垂	-10.7739
木戸	-10.7741
余の	-10.7742
楊	-10.7743
礼を	-10.7745
青年は	-10.7745
まわって	-10.7746
樣な	-10.7747
惑	-10.7749
▁雨	-10.775
ちがう	-10.7751
死を	-10.7753
戻って	-10.7754
もしなかった	-10.7754
信じ	-10.7757
▁この時	-10.7757
の口	-10.7757
発生	-10.7759
稀	-10.7762
言えば	-10.7766
ボン	-10.7773
ファン	-10.7774
場面	-10.7774
読書	-10.7775
たつ	-10.7775
グル	-10.7775
ダイ	-10.778
十人	-10.7781
殿の	-10.7782
其処に	-10.7786
吾々は	-10.7787
青木	-10.7787
排	-10.7788
殖	-10.7791
が出来る	-10.7792
単	-10.7794
神戸	-10.7796
後には	-10.7798
おそろしい	-10.78
なりました	-10.7802
気持で	-10.7803
祈り	-10.7803
所属	-10.7808
驚か	-10.781
あすこ	-10.7811
思われ	-10.7813
繩	-10.7815
誓	-10.7817
人数	-10.7818
躊躇	-10.7819
仕事に	-10.7819
らした	-10.7819
▁男	-10.7821
男で	-10.7822
禍	-10.7822
▁まるで	-10.7826
犬の	-10.7829
落して	-10.7829
教養	-10.7829
堂の	-10.783
はずれ	-10.7831
▁どうして	-10.7832
▁これも	-10.7833
いるのである	-10.7834
年には	-10.7834
飛行機	-10.7837
古典	-10.7837
ものだと	-10.7837
こい	-10.7848
est	-10.7849
は自分の	-10.7849
を出た	-10.7851
僅か	-10.7852
思われる	-10.7852
冊	-10.7853
クル	-10.7855
瞳	-10.7855
易い	-10.7857
わん	-10.786
地上	-10.7861
ような気がする	-10.7862
の金	-10.7863
棟	-10.7863
沙	-10.7864
神秘	-10.7864
んか	-10.7865
なんとなく	-10.7865
くん	-10.7866
るやうな	-10.7866
てある	-10.7867
碑	-10.7868
につき	-10.7868
飲	-10.7868
男だ	-10.7869
一ツ	-10.787
空の	-10.787
いけません	-10.7872
尋ねた	-10.7873
原理	-10.7874
ほぼ	-10.7874
をかけた	-10.7875
仔細	-10.7875
▁父は	-10.7879
吉の	-10.7879
上へ	-10.7881
っています	-10.7884
何処か	-10.7887
埃	-10.7888
ことなど	-10.7888
對	-10.7893
印度	-10.7893
を相手に	-10.7895
参加	-10.7896
たぶん	-10.7896
契約	-10.7898
るので	-10.7901
万一	-10.7901
疎	-10.7904
的である	-10.7905
どうなる	-10.7906
奥へ	-10.7906
育	-10.7909
古代	-10.7914
語る	-10.7918
からず	-10.7919
まき	-10.7921
くれて	-10.7922
八十	-10.7925
恒	-10.7928
いらっしゃい	-10.7928
を一つ	-10.7929
続いた	-10.7929
とめ	-10.7931
大変な	-10.7933
▁6	-10.7934
に乗って	-10.7934
un	-10.7935
舞い	-10.7937
同士	-10.7937
ひた	-10.7938
一瞬	-10.7939
辛抱	-10.7939
徴	-10.7941
に立つ	-10.7942
てくれた	-10.7943
風を	-10.7947
へば	-10.7947
屋に	-10.7948
つづけて	-10.795
の上の	-10.7951
どり	-10.7952
郷里	-10.7953
いきました	-10.7954
伸	-10.7955
うれしい	-10.7956
かせて	-10.7958
電報	-10.796
誇	-10.796
早くも	-10.7961
激しく	-10.7962
ようとして	-10.7965
多少の	-10.7966
をやって	-10.797
すて	-10.7972
劉	-10.7972
せざる	-10.7973
軍人	-10.7973
を通して	-10.7973
ともなく	-10.7973
足音	-10.7975
詳しく	-10.7977
益々	-10.7978
広告	-10.7978
il	-10.7979
▁ここ	-10.7982
家の中	-10.7984
のほか	-10.7984
八時	-10.7985
申して	-10.7985
緩	-10.7987
がなく	-10.7987
登って	-10.7987
を追	-10.7988
申した	-10.7988
ことにした	-10.7988
をつれて	-10.7989
指を	-10.7989
十五日	-10.7989
だれも	-10.7991
惡い	-10.7993
済ま	-10.7996
度々	-10.7999
旅館	-10.8003
つづけ	-10.8005
湾	-10.8007
いよ	-10.8008
婦人の	-10.8009
髭	-10.8011
察	-10.8013
遮	-10.8014
頗る	-10.8014
られます	-10.8016
くなつた	-10.8019
いうと	-10.802
部屋の中	-10.802
互いに	-10.8021
ってきた	-10.8023
のついた	-10.8023
流れる	-10.8024
まつて	-10.8025
町へ	-10.8028
註	-10.8028
一ぱい	-10.803
▁==	-10.8032
しません	-10.8034
図書館	-10.8034
らく	-10.8035
友だち	-10.8035
皆さん	-10.8037
天下の	-10.8037
▁かれは	-10.8038
悲劇	-10.804
ベッド	-10.8041
兵士	-10.8041
ロンドン	-10.8042
面の	-10.8042
元年	-10.8045
風な	-10.8046
目は	-10.8047
演説	-10.8053
時間が	-10.8053
天狗	-10.8054
夫が	-10.8056
聞いていた	-10.8058
一個の	-10.8059
乃	-10.806
の真	-10.8061
てくる	-10.8061
を殺した	-10.8061
たので	-10.8062
幸い	-10.8063
近くに	-10.8063
のね	-10.8063
まに	-10.8065
あッ	-10.8066
の腕	-10.8066
家から	-10.8066
ことではない	-10.8069
軸	-10.8072
プリ	-10.8073
を置いて	-10.8073
ナン	-10.8075
▁code	-10.8075
家来	-10.8077
どおり	-10.8078
んとする	-10.8078
草履	-10.8079
平生	-10.8082
中学校	-10.8082
熱い	-10.8083
探し	-10.8085
泣いた	-10.8086
の口から	-10.8087
沈んで	-10.8087
見ろ	-10.8087
してやる	-10.8092
偏	-10.8092
を求め	-10.8096
権力	-10.8098
市の	-10.81
反抗	-10.81
相当の	-10.81
に取り	-10.81
隠居	-10.8103
急ぎ	-10.8103
それ以上	-10.8105
がついて	-10.8107
濃い	-10.8108
づか	-10.8108
よき	-10.8111
きながら	-10.8112
の中心	-10.8116
藤原	-10.8117
時間を	-10.8119
結構	-10.812
剛	-10.8121
貰い	-10.8121
声は	-10.8123
そそ	-10.8123
落葉	-10.8125
が一番	-10.8126
痛み	-10.8126
▁|	-10.8127
伯爵	-10.8127
の主	-10.8127
▁これから	-10.8128
私の心	-10.8128
家康	-10.8129
呑	-10.8129
俵	-10.813
を書き	-10.8131
話に	-10.8132
たび	-10.8133
遅	-10.814
があろう	-10.814
皮肉	-10.814
時から	-10.8141
支度	-10.8141
彫刻	-10.8142
を持っていた	-10.8143
をふり	-10.8144
においても	-10.8144
光が	-10.8147
っぽ	-10.8147
きく	-10.8147
怖い	-10.8147
最中	-10.815
遊んで	-10.815
事柄	-10.815
商品	-10.8152
ことだろう	-10.8157
公開	-10.8157
見えます	-10.8157
あき	-10.8158
君を	-10.8159
野原	-10.8159
關	-10.8161
新らしい	-10.8162
ie	-10.8162
刊	-10.8164
▁君は	-10.8165
ぶら	-10.8166
鉄の	-10.8168
問題を	-10.8168
ように見える	-10.8172
委員会	-10.8172
ニャ	-10.8177
亦	-10.8178
車の	-10.818
文化の	-10.8182
朗	-10.8184
久しく	-10.8184
意を	-10.8184
許り	-10.8187
訊いて	-10.8187
速度	-10.8189
道場	-10.8189
掛けた	-10.8191
坪	-10.8192
▁それにしても	-10.8193
オル	-10.8194
のようなもの	-10.8194
鳴る	-10.8195
隔	-10.8196
ことと	-10.8196
娘を	-10.8196
緊張	-10.8201
いません	-10.8202
やつと	-10.8203
と同じく	-10.8207
金が	-10.8207
隱	-10.8209
日本人の	-10.821
されました	-10.8213
狼狽	-10.8215
航	-10.8219
自分でも	-10.822
祭り	-10.822
陸軍	-10.822
100	-10.8221
私共	-10.8223
殺す	-10.8223
竿	-10.8226
暑	-10.8227
可なり	-10.8227
さえすれば	-10.8227
▁ただし	-10.8228
の詩	-10.823
あちら	-10.823
の新	-10.8231
御飯	-10.8231
呑み	-10.8233
を立てて	-10.8233
を出す	-10.8234
固く	-10.8235
といふことは	-10.8235
年度	-10.8236
飲んだ	-10.8237
賜	-10.8238
ところだ	-10.8239
本の	-10.824
纏	-10.8241
至極	-10.8241
面倒	-10.8242
異様な	-10.8243
高等学校	-10.8244
事務	-10.8245
マス	-10.8246
おっ	-10.8247
やりたい	-10.8248
悲し	-10.8249
▁母	-10.825
×	-10.8252
やま	-10.8254
刺戟	-10.8258
60	-10.8259
はならない	-10.8262
立た	-10.8264
▁十	-10.8265
鴨	-10.8265
頭から	-10.8266
何事も	-10.8267
四五	-10.8268
失望	-10.8269
▁あなた	-10.827
東京に	-10.8272
二枚	-10.8275
の意	-10.8277
つれて	-10.8278
▁これらの	-10.8278
掻き	-10.8279
していると	-10.8279
啓	-10.8279
装置	-10.828
直に	-10.828
1)	-10.8281
かと思う	-10.8283
その通り	-10.8283
様は	-10.8283
さした	-10.8285
ですわ	-10.8287
ちょ	-10.8288
にあたる	-10.8289
亜	-10.829
▁Create	-10.8293
雪が	-10.8294
男を	-10.8294
政策	-10.8294
ふた	-10.8296
曹	-10.8296
上下	-10.83
▁x	-10.83
さア	-10.83
御存じ	-10.8301
数日	-10.8301
卑	-10.8302
植え	-10.8302
▁しかしながら	-10.8303
越後	-10.8303
やい	-10.8304
販売	-10.8305
気がした	-10.8306
の根	-10.8307
むろん	-10.8311
がち	-10.8312
刹那	-10.8312
才能	-10.8312
油断	-10.8315
のとき	-10.8317
の情	-10.8319
リズム	-10.832
この場合	-10.8322
出かけて	-10.8322
▁一体	-10.8323
の無い	-10.8323
良心	-10.8324
咲き	-10.8328
ゑ	-10.8329
きめ	-10.833
咽喉	-10.8332
しつつ	-10.8333
せつ	-10.8337
建て	-10.8339
我等	-10.834
こともない	-10.8341
▁東	-10.8341
ッタ	-10.8343
紅葉	-10.8343
分けて	-10.8345
余程	-10.8346
かすかに	-10.8347
食う	-10.8348
終る	-10.8348
寝る	-10.835
の名を	-10.835
大事に	-10.8355
id	-10.8357
頻	-10.8358
腹を	-10.8359
競	-10.8359
尋ねて	-10.836
▁神	-10.8361
うしろに	-10.8361
親の	-10.8362
▁with	-10.8363
スル	-10.8367
逃	-10.8369
ウィ	-10.8371
実際に	-10.8372
みても	-10.8372
人には	-10.8373
万円	-10.8375
こんなこと	-10.8375
拠	-10.8376
並べ	-10.8376
らば	-10.8377
種類の	-10.8378
獅子	-10.8379
の内容	-10.838
あいだ	-10.838
ぐらゐ	-10.8381
條	-10.8383
というわけ	-10.8383
講義	-10.8385
をつける	-10.8395
僕には	-10.8395
実在	-10.8403
を失って	-10.8403
くると	-10.8405
ことか	-10.8406
▁九	-10.8407
度い	-10.8409
をかき	-10.8411
そろ	-10.8411
なみ	-10.8412
▁彼女の	-10.8412
少く	-10.8415
を買って	-10.8416
フォ	-10.8417
嬉し	-10.8417
へエ	-10.8417
死の	-10.8418
を忘れて	-10.8418
一点	-10.842
余は	-10.8421
自然科学	-10.8421
田中	-10.8422
▁ここで	-10.8424
んや	-10.8424
その間に	-10.8425
ばり	-10.8427
遅く	-10.8427
を脱	-10.8427
遍	-10.8429
少しばかり	-10.8429
であること	-10.8431
心持ち	-10.8431
翻訳	-10.8432
さなかった	-10.8433
女優	-10.8433
はしなかった	-10.8434
學校	-10.8438
妓	-10.8438
は少しも	-10.8441
思え	-10.8441
▁高	-10.8441
ぬか	-10.8441
米友	-10.8443
朝日	-10.8447
症	-10.845
馴染	-10.8451
殺して	-10.8452
でなくて	-10.8453
▁その上	-10.8454
com	-10.8454
を求める	-10.8454
方針	-10.8454
所以	-10.8454
スの	-10.8455
わしが	-10.8457
▁number	-10.8458
おしまい	-10.8458
謡	-10.8458
ボル	-10.8458
叔父さん	-10.8461
渡って	-10.8462
▁その頃	-10.8463
週	-10.8464
床に	-10.8467
の跡	-10.847
へ出た	-10.8474
形に	-10.8474
ますか	-10.8474
必	-10.8475
城下	-10.8476
事實	-10.8478
鷲	-10.8478
混乱	-10.848
使者	-10.8481
のでしょうか	-10.8482
立派に	-10.8482
盛んに	-10.8484
隠して	-10.8484
すま	-10.8484
連絡	-10.8487
衝	-10.8488
に見えた	-10.849
盲	-10.8491
製の	-10.8491
の群	-10.8496
親父	-10.8498
雇	-10.8501
さっぱり	-10.8502
尋常	-10.8503
じゃア	-10.8506
ホール	-10.8508
鮮	-10.8508
つたら	-10.8511
ワイ	-10.8511
兄は	-10.8512
拭	-10.8514
ありがとう	-10.8515
面目	-10.8518
ra	-10.8521
三千	-10.8521
ことは出来ない	-10.8522
禮	-10.8522
株式会社	-10.8523
客の	-10.8523
受けた	-10.8525
復讐	-10.8526
秩序	-10.853
ッチ	-10.8531
苦しく	-10.8531
思はず	-10.8534
所は	-10.8534
どうしよう	-10.8534
の縁	-10.8535
クリストフ	-10.8538
帶	-10.8538
小路	-10.8539
村に	-10.8539
懐中	-10.854
むこう	-10.8541
託	-10.8542
当分	-10.8543
そう云う	-10.8544
つけられた	-10.8545
爆	-10.8546
力は	-10.8549
光を	-10.8551
ゆう	-10.8553
発行	-10.8557
ひら	-10.8559
を見ても	-10.8563
乳母	-10.8565
理性	-10.8565
二本	-10.8565
地方の	-10.8566
釈	-10.8567
そのうちに	-10.8569
もらい	-10.8571
ろうか	-10.8571
ことによって	-10.8573
間は	-10.8575
東北	-10.8576
稿	-10.8578
澤	-10.8579
となつた	-10.8581
軽蔑	-10.8582
しめる	-10.8582
の目的	-10.8583
一つ一つ	-10.8584
三つの	-10.8587
どこにも	-10.859
気がついて	-10.8592
そう言って	-10.8594
崇	-10.8594
祖先	-10.8595
紙を	-10.8596
給え	-10.8596
設立	-10.8597
高等	-10.8597
島田	-10.8598
の家の	-10.8599
無数の	-10.8599
世の中に	-10.8599
力で	-10.86
パラ	-10.8604
つちや	-10.8605
田さん	-10.8605
▁V	-10.8606
脂	-10.8607
幼い	-10.8608
黄色	-10.861
甲板	-10.861
どこかに	-10.8611
▁numbers	-10.8612
親しく	-10.8612
客が	-10.8613
を探	-10.8618
いたら	-10.8619
うんと	-10.862
ともかくも	-10.862
▁彼	-10.8621
ワン	-10.8622
も同じ	-10.8623
平均	-10.8625
扱	-10.8626
を立て	-10.8627
▁7	-10.8627
深夜	-10.8628
さぞ	-10.863
土間	-10.8633
に違ひない	-10.8635
丈け	-10.8635
狩	-10.8637
▁arr	-10.8637
判らない	-10.8639
握	-10.8639
してから	-10.8639
あたりに	-10.8639
大小	-10.8639
送って	-10.8641
わか	-10.8642
旅の	-10.8644
は云った	-10.8646
も見	-10.8647
向ふ	-10.8647
届け	-10.8649
ついでに	-10.8651
運転	-10.8651
ate	-10.8651
小川	-10.8652
暖	-10.8653
藻	-10.8658
私自身	-10.8658
▁僕の	-10.8658
といえども	-10.8659
さんを	-10.8664
なくなり	-10.8666
躯	-10.8666
三四	-10.8667
で御座います	-10.8669
コル	-10.867
拳	-10.867
消えた	-10.8671
▁実は	-10.8673
を突き	-10.8674
梁	-10.8676
とばかり	-10.8676
の晩	-10.8677
さうした	-10.8677
主人が	-10.8678
ことの	-10.8679
年から	-10.8681
型の	-10.8683
▁l	-10.8683
無事	-10.8684
まつた	-10.8688
どろ	-10.8689
一足	-10.8689
主に	-10.869
のことだ	-10.8691
んだもの	-10.8693
国内	-10.8694
になっても	-10.8695
群集	-10.8695
議会	-10.8696
依頼	-10.8696
分の	-10.8697
のを見た	-10.8697
なくてはならない	-10.8697
過程	-10.8699
準	-10.87
相手を	-10.8702
苦笑	-10.8702
伊藤	-10.8703
のよい	-10.8706
路地	-10.8707
怖れ	-10.8708
室へ	-10.8709
ハッキリ	-10.8712
竹の	-10.8713
を見せ	-10.8713
新たに	-10.8713
戦い	-10.8714
雲が	-10.8714
非難	-10.8716
知つてゐる	-10.8718
席に	-10.872
戀	-10.8721
助手	-10.8721
はなく	-10.8723
めぐ	-10.8724
伸子は	-10.8724
左右に	-10.8725
何度も	-10.8725
れり	-10.8728
文庫	-10.8728
注文	-10.8728
反省	-10.8735
その夜	-10.8737
する者	-10.8738
計算	-10.8739
屑	-10.874
ついで	-10.8745
あか	-10.8745
ことであろう	-10.8747
直し	-10.8748
来ます	-10.875
うちは	-10.875
這入って	-10.8752
井上	-10.8752
があるので	-10.8753
へ行つて	-10.8758
可能性	-10.8762
衣裳	-10.8766
三十分	-10.8766
酷	-10.8767
戯	-10.8768
▁そ	-10.8769
るという	-10.8769
謂	-10.8769
盃	-10.877
基礎	-10.8772
の精神	-10.8772
鈴木	-10.8774
たけ	-10.8775
浴	-10.8776
頼んで	-10.8781
髮	-10.8782
純粋	-10.8782
和歌	-10.8783
と見える	-10.8784
手拭	-10.8787
あれが	-10.8789
▁秋	-10.879
に当る	-10.879
さずに	-10.8791
去年	-10.8791
im	-10.8792
蟹	-10.8794
逃げた	-10.8797
アラ	-10.8798
ネル	-10.88
正直	-10.88
いじ	-10.8801
ひて	-10.8811
は必ず	-10.8813
出来事	-10.8816
われら	-10.8817
を知り	-10.8817
魔法	-10.8819
行列	-10.8822
呉れた	-10.8823
渡る	-10.8828
背後	-10.8828
破れ	-10.8828
誰かが	-10.883
されてゐる	-10.883
先を	-10.8831
▁from	-10.8832
規則	-10.8833
うそ	-10.8836
ここから	-10.884
はやく	-10.8841
右衛門は	-10.8841
語を	-10.8841
署	-10.8841
と考えた	-10.8843
姉妹	-10.8844
会の	-10.8846
の地	-10.885
▁The	-10.8851
特色	-10.8851
賣	-10.8852
暗示	-10.8852
システム	-10.8852
いちど	-10.8853
滴	-10.8853
の自由	-10.8853
そなた	-10.8857
女と	-10.8859
っていう	-10.886
もんか	-10.886
仇	-10.8861
ったのは	-10.8864
甥	-10.8865
うっかり	-10.8865
そのまゝ	-10.8866
ぢやありませんか	-10.8867
なかに	-10.8869
地位	-10.8871
現場	-10.8872
の裾	-10.8872
象徴	-10.8873
▁まず	-10.8878
珍らしい	-10.8879
程度の	-10.888
權	-10.888
直した	-10.8881
獲得	-10.8881
デル	-10.8881
知らん	-10.8881
魏	-10.8881
だけでは	-10.8882
の種	-10.8882
寄った	-10.8888
下から	-10.8889
っきり	-10.8894
後悔	-10.8895
の旅	-10.8896
恨み	-10.8896
に似て	-10.8898
分り	-10.8898
ものであり	-10.8899
かみ	-10.89
満ち	-10.8902
二三日	-10.8902
管理	-10.8906
意外	-10.8906
光線	-10.891
持て	-10.8911
あっし	-10.8911
駆	-10.8911
婿	-10.8914
穿	-10.8914
一見	-10.8919
廻った	-10.892
孔明	-10.8921
.........	-10.8921
玄徳	-10.8922
支那人	-10.8922
つづき	-10.8923
もとより	-10.8927
泊り	-10.8929
マア	-10.8931
この男	-10.8932
を着た	-10.8933
惣	-10.8935
猟	-10.8941
王子	-10.8942
▁海	-10.8945
がけ	-10.8945
やがる	-10.8946
云えば	-10.8946
忘れた	-10.8947
附いて	-10.8948
むと	-10.8955
に引き	-10.8955
住民	-10.8957
何かしら	-10.8958
居り	-10.8958
を読み	-10.8959
孔	-10.896
出されて	-10.8961
追ひ	-10.8961
されること	-10.8961
あとに	-10.8962
の妻	-10.8962
が出来た	-10.8965
寝た	-10.8965
うるさい	-10.8969
廻して	-10.8969
丁寧に	-10.8971
▁唯	-10.8971
着け	-10.8972
斗	-10.8973
寮	-10.8973
喚	-10.8973
km	-10.8974
抜いて	-10.8974
どこかへ	-10.8976
洗い	-10.8977
出現	-10.8977
気がする	-10.8979
神話	-10.8982
見えぬ	-10.8986
いたのだ	-10.8986
訊き	-10.8989
役所	-10.8991
会社の	-10.8992
若旦那	-10.8993
ソー	-10.8994
髪の毛	-10.8994
自分と	-10.8995
を失った	-10.8995
漫	-10.8995
慎	-10.8997
大地	-10.8997
すべ	-10.8998
惜し	-10.8998
兒	-10.8998
糞	-10.8998
異なる	-10.8999
ってる	-10.9001
母親は	-10.9001
その晩	-10.9001
待つ	-10.9004
を感ずる	-10.9005
ヴォ	-10.9005
すんだ	-10.9005
を出した	-10.9005
▁雪	-10.9005
のあと	-10.9007
下手	-10.9007
ミー	-10.9007
合ひ	-10.9008
ひる	-10.9009
ってくる	-10.9009
ことであった	-10.9011
以前に	-10.9011
作は	-10.9015
喰べ	-10.9015
はれて	-10.9016
ことがない	-10.9018
もあります	-10.9021
することに	-10.9021
やつぱり	-10.9023
はやはり	-10.9026
哲	-10.9027
住む	-10.9028
平野	-10.9032
▁長	-10.9035
べからざる	-10.9035
今日も	-10.9035
を意味する	-10.9037
くなつて	-10.904
毎晩	-10.9041
前で	-10.9041
階段を	-10.9042
▁「――」	-10.9046
大学の	-10.9046
という話	-10.9048
の肩	-10.9048
グループ	-10.9049
篠	-10.9049
頼んだ	-10.9049
農業	-10.9051
尽き	-10.9051
の姿は	-10.9053
ではないが	-10.9053
三味線	-10.9057
周囲の	-10.9063
吐	-10.9063
びっくりして	-10.9064
精神的	-10.9068
椿	-10.907
ティー	-10.9071
八幡	-10.9072
つかま	-10.9072
色が	-10.9072
占	-10.9073
必死	-10.9074
この上	-10.9076
集団	-10.9077
どこかで	-10.9078
って行く	-10.9078
者だ	-10.9079
▁当時	-10.9079
ビール	-10.9082
巌	-10.9082
一人も	-10.9086
きった	-10.9086
ブリ	-10.9087
愛する	-10.909
芭蕉	-10.9091
足り	-10.9093
現われて	-10.9093
れていた	-10.9096
千万	-10.9096
召	-10.9097
明かに	-10.9099
いたのです	-10.9104
同年	-10.9106
▁num	-10.9107
両側	-10.9108
したのだ	-10.9109
あろう	-10.9109
割り	-10.911
一時に	-10.9111
待っていた	-10.9113
船頭	-10.9114
討ち	-10.9115
母に	-10.9118
文壇	-10.9118
ナリ	-10.9118
復活	-10.9121
▁お前	-10.9125
二階へ	-10.9127
▁たゞ	-10.9128
地主	-10.9129
うえ	-10.9129
降る	-10.9132
ましく	-10.9137
きます	-10.9137
個性	-10.9139
を始め	-10.9142
だまって	-10.9142
苦し	-10.9143
種々	-10.9144
世間に	-10.9144
彫	-10.9144
彼と	-10.9146
平家	-10.9146
積み	-10.9146
崩れ	-10.9151
太鼓	-10.9151
ヘル	-10.9152
わたしたち	-10.9156
それよりも	-10.9156
向うに	-10.9158
太郎の	-10.9162
意地	-10.9162
らるる	-10.9165
完全な	-10.9165
通し	-10.9166
くつ	-10.9167
持って来た	-10.9168
お婆さん	-10.9169
認め	-10.917
』『	-10.9171
儲け	-10.9172
調和	-10.9172
走った	-10.9172
と同	-10.9173
さつき	-10.9174
両手で	-10.9174
処女	-10.9174
▁西	-10.9174
致します	-10.9175
甘い	-10.9176
ナル	-10.9179
のではなく	-10.918
場に	-10.9183
わかりません	-10.9184
錢	-10.9184
棺	-10.9184
尋ね	-10.9186
しげに	-10.9188
つぱ	-10.9188
せいか	-10.9189
最大	-10.9189
なのに	-10.919
客は	-10.9191
ことのない	-10.9191
2000	-10.9192
だけである	-10.9192
風邪	-10.9193
▁少し	-10.9195
根本	-10.9196
寄る	-10.9198
▁早く	-10.9198
思っている	-10.9199
オレ	-10.9199
位に	-10.92
研	-10.9202
動揺	-10.9204
しなければならぬ	-10.9205
のを見ると	-10.9205
出さ	-10.9205
給仕	-10.9206
額に	-10.9206
右手	-10.9206
観音	-10.9208
から出た	-10.9208
裁	-10.9209
ツイ	-10.9211
調べて	-10.9211
厚い	-10.9212
らは	-10.9213
靜	-10.9213
事実を	-10.9213
そつと	-10.9214
姿で	-10.9216
廃止	-10.9216
▁あれは	-10.9217
ひとりの	-10.922
衝突	-10.922
どき	-10.9222
渦	-10.9224
がたい	-10.9225
仰せ	-10.9228
ドリ	-10.9232
あの男	-10.9234
80	-10.9236
初めから	-10.9239
ましたよ	-10.924
幾度も	-10.924
▁南	-10.9241
町人	-10.9244
待っている	-10.9246
凡そ	-10.925
むら	-10.9252
気な	-10.9252
▁二人の	-10.9255
それぞれの	-10.9258
社會	-10.9258
誇り	-10.926
の壁	-10.9261
著者	-10.9263
メル	-10.9264
であらうか	-10.9266
運転手	-10.927
ly	-10.9272
お通	-10.9273
▁わしは	-10.9273
出身	-10.9274
鎧	-10.9275
姿勢	-10.9275
保存	-10.9276
捕え	-10.9276
センター	-10.9277
言葉の	-10.928
間違	-10.9281
シングル	-10.9282
ほうが	-10.9283
ボール	-10.9286
▁真	-10.9287
レース	-10.9287
銘	-10.9287
るから	-10.9291
先祖	-10.9292
ヴェ	-10.9292
責	-10.9293
▁清	-10.9294
四時	-10.9294
と云うのは	-10.9295
お絹	-10.9296
打たれ	-10.9297
でもあり	-10.9298
入っている	-10.9298
菅	-10.93
もあつた	-10.93
八郎	-10.9301
少しく	-10.9301
ad	-10.9302
隣り	-10.9303
るまで	-10.9303
そこは	-10.9304
墓地	-10.9305
一目	-10.9305
疲れて	-10.9307
ほんとうの	-10.9308
おりて	-10.9308
リスト	-10.9308
頃に	-10.9311
ふき	-10.9313
ほんとう	-10.9314
立つた	-10.9315
ように思われる	-10.9315
筈はない	-10.9316
河内	-10.9319
置か	-10.9323
のではないかと	-10.9324
だて	-10.9326
だったのです	-10.9327
描写	-10.9328
役に	-10.9328
地区	-10.9331
州の	-10.9332
郵便	-10.9334
ものなら	-10.9336
公式	-10.9338
しそうに	-10.9342
野村	-10.9342
シャツ	-10.9343
姉の	-10.935
定め	-10.9353
半年	-10.9354
の間で	-10.9354
航空	-10.9359
が来る	-10.9364
たように	-10.9365
抜けて	-10.9368
別れた	-10.937
教室	-10.9373
黙つて	-10.9373
かえり	-10.9373
の美しさ	-10.9374
自分たち	-10.9375
出せ	-10.9376
設置	-10.9376
不幸な	-10.9377
したような	-10.9378
分類	-10.938
一方の	-10.9383
数学	-10.9385
つても	-10.9386
んですね	-10.9386
馬鹿な	-10.9386
デー	-10.9386
活躍	-10.9393
um	-10.9393
様子を	-10.9394
ウル	-10.9395
思つて	-10.9397
種類	-10.9398
船を	-10.9399
をよく	-10.94
たつた	-10.9401
戴	-10.9403
をとる	-10.9405
見ました	-10.9407
ッシュ	-10.9408
屋敷の	-10.9411
あたしは	-10.9412
じゃないの	-10.9413
のもとに	-10.9413
虫の	-10.9414
ぼくの	-10.9414
地名	-10.9417
撮影	-10.9418
当人	-10.9419
七十	-10.942
御前	-10.9421
着いて	-10.9422
六時	-10.9422
ップ	-10.9424
辺に	-10.9426
研究所	-10.9427
てくれる	-10.9427
なんとか	-10.9428
興行	-10.9428
に至るまで	-10.9428
複雑な	-10.9429
たちも	-10.9431
地図	-10.9434
充分に	-10.9435
であろうが	-10.9435
仕事は	-10.9436
らねえ	-10.9438
櫛	-10.944
age	-10.9443
もらう	-10.9444
與	-10.9445
見たら	-10.9447
別荘	-10.9447
おこ	-10.9447
もともと	-10.9448
参考	-10.9449
こちらの	-10.9449
第二の	-10.9452
に引	-10.9453
生存	-10.9453
揚げ	-10.9453
あらず	-10.9454
のそばに	-10.9454
勧め	-10.9455
必要がある	-10.9456
世を	-10.9456
▁J	-10.9458
こりゃ	-10.9459
反対に	-10.9459
ドウ	-10.946
のかしら	-10.946
郊外	-10.9461
るのも	-10.9461
がまだ	-10.9463
ことばかり	-10.9465
きまって	-10.9465
出来ぬ	-10.9467
箱を	-10.9469
吊	-10.9469
ていました	-10.947
場合は	-10.947
けない	-10.947
▁同じ	-10.9472
抗	-10.9474
訪ねて	-10.9476
こら	-10.9477
バカ	-10.9477
芥川	-10.9477
の宿	-10.9479
下さいまし	-10.948
でさえ	-10.9483
と見え	-10.9483
の影響	-10.9485
組の	-10.9485
因縁	-10.9488
ボーイ	-10.9489
どうです	-10.9489
繋	-10.9491
仕舞	-10.9492
日常	-10.9492
看	-10.9492
鞄	-10.9493
上流	-10.9494
以外	-10.9494
むべき	-10.9495
宋	-10.9496
......』	-10.9497
浮んで	-10.9498
確信	-10.95
現実の	-10.9501
ヽ	-10.9502
母親の	-10.9506
輕	-10.9506
宮の	-10.9507
ないし	-10.9508
ne	-10.9508
一匹	-10.9509
かわからない	-10.9509
イデオロギー	-10.9511
飽き	-10.9511
こともあった	-10.9512
青年の	-10.9512
世界に	-10.9515
親戚	-10.9516
のではあるまいか	-10.9518
つくり	-10.9519
返って	-10.9521
農村	-10.9522
って行った	-10.9522
拙	-10.9522
しらべ	-10.9522
意外な	-10.9523
張った	-10.9523
の価値	-10.9524
訴	-10.9524
ここを	-10.9524
作った	-10.9524
フランスの	-10.9525
めぐり	-10.9526
それら	-10.9526
シナ	-10.9527
堪	-10.9528
母さん	-10.953
頻りに	-10.953
まさ	-10.953
を与えた	-10.953
迷信	-10.9531
碁	-10.9533
の海	-10.9533
握り	-10.9533
換え	-10.9534
通常	-10.9538
睨み	-10.9538
大工	-10.9539
繰り	-10.9539
そう云って	-10.954
克	-10.9541
轉	-10.9542
樣子	-10.9543
思へ	-10.9544
之介	-10.9545
採用	-10.9546
手は	-10.9547
▁どんな	-10.9549
止めた	-10.955
物理学	-10.9552
正義	-10.9553
そのほか	-10.9555
人たちが	-10.9555
風は	-10.9557
諦め	-10.9561
te	-10.9562
を探し	-10.9562
己れ	-10.9565
続け	-10.9565
気配	-10.9566
つて來た	-10.9566
眼の前に	-10.9566
考へた	-10.9566
んだな	-10.9567
▁その他	-10.9569
そのうち	-10.9573
斉	-10.9575
迫って	-10.9576
に對する	-10.9577
価格	-10.9577
だと思った	-10.9579
終って	-10.958
わよ	-10.9581
疲労	-10.9582
現れて	-10.9584
何ぞ	-10.9587
大部分	-10.9588
設計	-10.9588
頬を	-10.9588
をもた	-10.959
課長	-10.959
まち	-10.9595
りません	-10.9595
懷	-10.9595
てゆく	-10.9596
だらけ	-10.9596
の姿を	-10.9597
体が	-10.9598
窪	-10.96
ようだが	-10.96
罪を	-10.9601
廊下を	-10.9602
▁de	-10.9602
無用	-10.9603
バラ	-10.9603
昔は	-10.9604
かも知れないが	-10.9604
二時間	-10.9606
を知っている	-10.9606
ごう	-10.9606
あの人は	-10.9607
足跡	-10.9607
でございますか	-10.9607
日を	-10.9608
却	-10.9608
彌	-10.9609
若い男	-10.9611
弁当	-10.9613
んですから	-10.9613
残して	-10.9614
兼ね	-10.9614
制限	-10.9615
ですな	-10.9615
段階	-10.9616
かぎ	-10.9617
らむ	-10.9619
さまは	-10.9619
の言葉を	-10.962
ィ	-10.962
知りません	-10.9621
上等	-10.9621
胆	-10.9621
殻	-10.9622
結合	-10.9623
倒れた	-10.9624
だったので	-10.9627
つて居た	-10.9627
アメリカの	-10.9627
すんで	-10.9629
めし	-10.9632
御座	-10.9633
広場	-10.9633
貧しい	-10.9634
▁よく	-10.9635
を被	-10.9636
様子が	-10.9636
老人が	-10.9636
並べて	-10.9637
トゥ	-10.964
街の	-10.9641
左手	-10.9644
誰の	-10.9647
上京	-10.9648
かれの	-10.965
さっそく	-10.9653
はすでに	-10.9658
して来る	-10.966
いれ	-10.9661
ッテ	-10.9662
なけりゃ	-10.9666
廉	-10.9667
その間	-10.9667
))	-10.9667
ごらんなさい	-10.9667
毎	-10.9667
ませて	-10.9669
疲れた	-10.9669
声も	-10.967
恰も	-10.9672
心で	-10.9673
不満	-10.9673
ています	-10.9673
すが	-10.9675
合図	-10.9677
何処へ	-10.9678
木立	-10.9684
呼ぶ	-10.9684
はほとんど	-10.9684
彼奴	-10.9684
込	-10.9684
綴	-10.9685
簡	-10.9685
目も	-10.9688
根拠	-10.9689
賃	-10.9689
鯉	-10.9689
法を	-10.9692
生まれた	-10.9694
災	-10.9694
フト	-10.9695
医学	-10.9695
卓子	-10.9696
西洋の	-10.9696
中学	-10.9696
を感じる	-10.9701
咎め	-10.9702
逐	-10.9703
精神の	-10.9707
ことが出来	-10.9708
給へ	-10.9709
的で	-10.971
らうと	-10.971
於	-10.971
はれた	-10.9712
ポリ	-10.9714
慈悲	-10.9715
▁いくら	-10.9716
なげ	-10.9716
を忘れ	-10.9717
はすぐ	-10.9717
隣りの	-10.9718
その人の	-10.9722
の下から	-10.9722
住み	-10.9724
言葉に	-10.9724
印刷	-10.9726
存在する	-10.9726
思は	-10.9729
移動	-10.9729
それだけで	-10.973
くせに	-10.973
どなた	-10.973
辛い	-10.9731
芸術的	-10.9732
長屋	-10.9733
んば	-10.9734
ちと	-10.9735
ほん	-10.9736
といひ	-10.9736
かならず	-10.9738
自分たちの	-10.9738
ものだが	-10.974
思われた	-10.9741
やうで	-10.9742
述	-10.9742
気も	-10.9744
ふるえ	-10.9745
成る	-10.9745
忙しい	-10.9748
濡れ	-10.975
摺	-10.975
代り	-10.975
ウェ	-10.975
宴	-10.9751
樽	-10.9752
因果	-10.9753
かって	-10.9755
蚊	-10.9757
よせ	-10.9757
の作品	-10.9761
わかりました	-10.9765
生活が	-10.9769
括	-10.977
またその	-10.9771
なんとも	-10.9773
いっそ	-10.9774
って居る	-10.9774
という人	-10.9777
打つ	-10.9777
年頃	-10.9779
通過	-10.9781
本質	-10.9781
水戸	-10.9781
女中が	-10.9782
っくり	-10.9783
口で	-10.9783
蠅	-10.9784
云わ	-10.9785
土蔵	-10.9786
吉が	-10.9786
向けた	-10.979
の顔が	-10.979
掲げ	-10.9792
資料	-10.9794
しねえ	-10.9795
を中心に	-10.9795
の森	-10.9797
の絵	-10.9799
いわれ	-10.9799
掃	-10.98
の性質	-10.9802
感激	-10.9802
出来るだけ	-10.9802
積り	-10.9802
浩	-10.9803
靈	-10.9803
をしたり	-10.9805
たとえば	-10.9806
教えて	-10.9806
往った	-10.9806
知れない	-10.9807
包んで	-10.9808
迎	-10.9808
の話を	-10.9809
翌年	-10.9811
泣	-10.9813
ニュース	-10.9813
サラ	-10.9814
ござ	-10.9815
▁一方	-10.9816
津田	-10.9816
ステ	-10.982
おら	-10.982
答えて	-10.982
▁母は	-10.9822
浸	-10.9822
ざりし	-10.9822
するほど	-10.9823
ああいう	-10.9824
寺院	-10.9825
ぶる	-10.9826
かわり	-10.9826
讃	-10.9827
しゅう	-10.9827
をなして	-10.9829
驚くべき	-10.983
この点	-10.9831
育て	-10.9831
今にも	-10.9832
の原因	-10.9836
に入れ	-10.9836
子供達	-10.9836
いるのが	-10.9837
近所	-10.9837
双方	-10.9837
向いて	-10.9838
食卓	-10.9838
があると	-10.984
書類	-10.984
獲	-10.9841
待た	-10.9842
るようにして	-10.9842
いやだ	-10.9847
廿	-10.9848
相違	-10.9849
▁お前は	-10.9851
驚	-10.9851
脚本	-10.9852
ul	-10.9852
寝室	-10.9853
▁而して	-10.9854
おとなしく	-10.9854
暫らく	-10.9857
ント	-10.9858
あけて	-10.9858
瓜	-10.9861
姓	-10.9862
産業	-10.9863
最終	-10.9864
の様な	-10.9866
担当	-10.9868
の顔を見	-10.9868
テーマ	-10.9868
こぼれ	-10.987
を求めて	-10.9877
爆発	-10.9877
六日	-10.9878
000	-10.9878
社の	-10.9879
イー	-10.9884
スポーツ	-10.9885
といふもの	-10.9886
ベン	-10.9888
雁	-10.9889
出てくる	-10.989
ゐなかつた	-10.989
あわ	-10.989
今迄	-10.989
小野	-10.9891
2,	-10.9891
六人	-10.9892
この人	-10.9893
刈	-10.9893
仕事の	-10.9895
中々	-10.9896
ありませんでした	-10.9898
といふやうな	-10.9899
惜しい	-10.99
風で	-10.99
二人を	-10.9901
下手人	-10.9903
と思はれる	-10.9904
ありますが	-10.9905
坊さん	-10.9905
でしょうね	-10.9907
智慧	-10.9908
鑑	-10.991
に行き	-10.991
雨が	-10.9911
御免	-10.9913
特殊な	-10.9914
ができる	-10.9917
と云ふこと	-10.9919
主婦	-10.9919
るだろう	-10.992
限定	-10.992
耕	-10.9921
谷の	-10.9925
そばに	-10.9927
紛れ	-10.9927
實に	-10.9928
いるような	-10.9929
信者	-10.9929
腸	-10.9931
僕等	-10.9931
に非ず	-10.9932
いひ	-10.9932
階下	-10.9936
に相違	-10.9937
近くの	-10.9938
炊	-10.9939
令嬢	-10.9941
滿	-10.9942
草鞋	-10.9945
總	-10.9945
拍子	-10.9948
独りで	-10.9948
曾	-10.9949
▁五月	-10.9949
のかと	-10.9952
多数の	-10.9953
体に	-10.9954
にとつて	-10.9954
うございます	-10.9956
めえ	-10.9956
欺	-10.9959
ow	-10.9959
やりました	-10.9959
品川	-10.996
格別	-10.9965
とやら	-10.9965
いたし	-10.9965
漫画	-10.9967
薬を	-10.9967
女たち	-10.9969
に応じて	-10.9969
押え	-10.997
燈火	-10.997
スペイン	-10.9973
ol	-10.9975
坐った	-10.9976
部屋で	-10.9977
出される	-10.9977
鮎	-10.9977
かもしれません	-10.9977
ゲン	-10.9979
ダンス	-10.9979
味を	-10.998
せき	-10.998
すべてが	-10.9982
められた	-10.9982
進行	-10.9985
有難い	-10.9986
求め	-10.9987
色を	-10.9988
両国	-10.9989
裕	-10.9989
かれら	-10.999
蒸	-10.9991
渡して	-10.9991
▁昔	-10.9992
むか	-10.9993
九年	-10.9994
予期	-10.9994
ばかりである	-10.9994
つり	-10.9995
僧侶	-10.9996
der	-10.9996
おのずから	-11
相応	-11.0003
地理	-11.0004
而も	-11.0005
着いた	-11.0005
へ向って	-11.0006
は既に	-11.0008
却つて	-11.0008
▁皆	-11.001
やうになつた	-11.001
野の	-11.001
母と	-11.0011
きれいな	-11.0012
從	-11.0013
渇	-11.0014
わからぬ	-11.0015
厭な	-11.0016
上がり	-11.0018
にもかかわらず	-11.0019
名人	-11.0019
しめて	-11.002
上つて	-11.0021
の代りに	-11.0022
づき	-11.0023
と考える	-11.0023
ていたが	-11.0024
▁伸子は	-11.0025
よくない	-11.0026
▁されば	-11.0027
夫妻	-11.0032
台の	-11.0032
ることが	-11.0033
居間	-11.0034
話題	-11.0035
両者	-11.0037
喪	-11.0037
切る	-11.0038
なすって	-11.0039
念仏	-11.0039
貨物	-11.0041
さながら	-11.0042
気になって	-11.0044
と云ひ	-11.0044
向い	-11.0044
議員	-11.0045
ぶっ	-11.0046
沸	-11.0047
こめ	-11.0049
〻	-11.005
しておく	-11.0052
文学者	-11.0052
しずかに	-11.0052
此處	-11.0053
の存在	-11.0055
複雑	-11.0055
愛の	-11.0055
合点	-11.0056
欲し	-11.0056
期の	-11.0058
遊ぶ	-11.0059
ルド	-11.0059
献	-11.006
皆んな	-11.0061
を思い	-11.0063
匹	-11.0063
ですからね	-11.0063
けさ	-11.0064
冷え	-11.0065
確か	-11.0065
まいと	-11.0066
預	-11.0067
男と	-11.0067
ままで	-11.0069
蒙	-11.0069
三人は	-11.0069
ための	-11.007
私達は	-11.0071
la	-11.0073
ものがあった	-11.0074
二十五	-11.0075
ことだった	-11.0075
帰つて	-11.0077
そうだった	-11.0078
ネット	-11.0078
は常に	-11.0078
設	-11.0079
並木	-11.0079
ピストル	-11.0079
滅多に	-11.0086
かしい	-11.0086
頭脳	-11.0088
進んだ	-11.0088
簡単な	-11.009
出ました	-11.009
しまひました	-11.0091
ずつと	-11.0092
死後	-11.0094
が出来て	-11.0094
誤り	-11.0095
弁護士	-11.0099
やっている	-11.0099
を向いて	-11.01
命じ	-11.0104
就	-11.0106
ろい	-11.011
揃	-11.011
だったら	-11.0111
おられる	-11.0111
じゃありません	-11.0112
下女	-11.0115
何者	-11.0116
便所	-11.0118
支え	-11.0119
なかったのです	-11.0121
を使って	-11.0125
狙	-11.0126
巻いて	-11.0126
▁それとも	-11.0127
の本質	-11.013
由来	-11.013
▁故に	-11.013
山へ	-11.013
隻	-11.0131
永久に	-11.0132
笑つた	-11.0132
容易	-11.0132
にかかった	-11.0133
きつと	-11.0134
馬に	-11.0134
見えなかった	-11.0135
爲め	-11.0136
烈しい	-11.0138
仕事が	-11.0141
のかね	-11.0142
壊	-11.0144
大勢の	-11.0145
続けて	-11.0146
を越えて	-11.0147
が如き	-11.0147
処の	-11.0147
の心を	-11.0147
をしてゐる	-11.0148
作家の	-11.0149
身の上	-11.0149
タリ	-11.0153
のだと	-11.0154
部屋を	-11.0155
べつに	-11.0156
を開いて	-11.0156
国に	-11.0159
佐藤	-11.016
を奪	-11.0161
悠	-11.0162
の句	-11.0163
陶	-11.0163
湧き	-11.0164
こんど	-11.0167
編曲	-11.0168
境内	-11.0168
容貌	-11.0169
馬が	-11.017
なかったら	-11.0171
貰って	-11.0171
不快	-11.0171
こぼ	-11.0173
高さ	-11.0174
源氏	-11.0175
を挙げて	-11.0176
以下の	-11.0177
吹いて	-11.0177
注意を	-11.018
田舎の	-11.0182
解らない	-11.0182
覧	-11.0183
笑顔	-11.0184
聲を	-11.0185
この世	-11.0185
背景	-11.0186
内心	-11.0187
てい	-11.0188
夢の	-11.0189
落し	-11.019
タイプ	-11.019
叱	-11.0192
話をして	-11.0193
両方	-11.0193
接吻	-11.0193
一分	-11.0194
火が	-11.0198
特殊	-11.02
丈夫	-11.02
半七は	-11.0201
てしまつた	-11.0201
梶	-11.0202
わたしも	-11.0203
善い	-11.0203
鋭	-11.0203
五時	-11.0204
こつち	-11.0204
といつた	-11.0205
出している	-11.0205
折れ	-11.0205
へかけて	-11.0206
線の	-11.0206
悔	-11.0207
棄	-11.0208
薔薇	-11.0208
二十四	-11.0209
メント	-11.0209
魚の	-11.0211
▁八五郎は	-11.0212
んだい	-11.0212
来ていた	-11.0213
あなたも	-11.0213
屋で	-11.0214
の内に	-11.0215
示す	-11.0216
理由は	-11.0216
砂糖	-11.0216
演出	-11.0217
捜査	-11.0221
つくづく	-11.0225
悪いこと	-11.0226
あらば	-11.0226
同じような	-11.0227
メンバー	-11.0227
天然	-11.0227
硬	-11.0228
催	-11.0228
実施	-11.0229
規	-11.023
お父様	-11.023
の朝	-11.023
ぼんやりと	-11.0235
や否や	-11.0235
範囲	-11.0237
何しろ	-11.0238
何ん	-11.024
旗本	-11.0241
借金	-11.0241
アス	-11.0243
髪の	-11.0243
心持が	-11.0244
松本	-11.0244
帰れ	-11.0245
あなたを	-11.0247
償	-11.0249
の時代	-11.025
滑稽	-11.0252
探偵小説	-11.0252
眩	-11.0253
兵馬	-11.0253
しまつて	-11.0253
剤	-11.0254
呉れる	-11.0255
についても	-11.0255
もなし	-11.0255
麓	-11.0256
博士が	-11.0257
縁の	-11.0257
衣服	-11.0257
ブラン	-11.0258
𢌞	-11.0259
仏蘭西	-11.0259
誘惑	-11.0259
っか	-11.0262
をもち	-11.0263
金は	-11.0263
柏	-11.0263
ドー	-11.0268
道楽	-11.027
訪	-11.027
感ずる	-11.0272
越しに	-11.0272
思ひ出	-11.0272
凶	-11.0273
ミン	-11.0275
夫人が	-11.0276
絞	-11.0277
ような気がして	-11.0278
覗いて	-11.0279
人から	-11.0279
重く	-11.0282
お聞き	-11.0283
なきゃ	-11.0283
木曾	-11.0283
ホーム	-11.0286
なされた	-11.0287
梨	-11.0288
あの方	-11.0288
捧げ	-11.0289
相互	-11.029
現れ	-11.0291
盲目	-11.0292
有名	-11.0293
イス	-11.0294
心の中で	-11.0295
障	-11.0302
ものらしい	-11.0302
戦場	-11.0302
七八	-11.0305
東西	-11.0307
▁さらに	-11.0307
万人	-11.0308
デス	-11.0309
▁実に	-11.0309
正直に	-11.0309
瞼	-11.0312
大概	-11.0312
次ぎ	-11.0313
の墓	-11.0314
去年の	-11.0314
折々	-11.0317
あさ	-11.032
藩の	-11.0321
("	-11.0322
此処に	-11.0322
役割	-11.0323
のぼって	-11.0323
正に	-11.0323
ほんと	-11.0324
関心	-11.0325
佛	-11.0325
中間	-11.0325
疊	-11.0326
▁若い	-11.0327
の傍に	-11.0328
スタン	-11.0328
籍	-11.0328
らな	-11.033
太平洋	-11.0331
水は	-11.0332
name	-11.0336
行われた	-11.0337
▁9	-11.0337
おん	-11.0337
とたんに	-11.034
ter	-11.0343
現われ	-11.0343
寝ている	-11.0344
の香	-11.0344
仕度	-11.0344
稍	-11.0345
乎	-11.0345
ふみ	-11.0346
者たち	-11.0346
核	-11.0349
我は	-11.035
目標	-11.0352
海に	-11.0352
鳴く	-11.0354
様式	-11.0354
赤ん坊	-11.0355
たるもの	-11.0356
黙っていた	-11.0356
無かった	-11.0357
かの女	-11.0358
幾分	-11.0358
知つて	-11.0358
と思ひ	-11.036
家中	-11.036
わるい	-11.0361
ということである	-11.0362
綾	-11.0362
込まれて	-11.0363
胡	-11.0363
じゃねえか	-11.0364
なるべし	-11.0364
全て	-11.0364
似合	-11.0366
告白	-11.0366
もらいたい	-11.0367
ジン	-11.0369
着物を	-11.0369
その方	-11.0369
味が	-11.037
の古	-11.0373
を追い	-11.0374
開く	-11.0377
だらうか	-11.038
先日	-11.0383
企業	-11.0384
チャー	-11.0384
すばらしい	-11.0384
平常	-11.0387
この事件	-11.0388
右に	-11.0388
藝術	-11.0389
いけ	-11.0393
洒落	-11.0394
奴隷	-11.0394
返り	-11.0394
2)	-11.0396
のび	-11.0397
楽しい	-11.0398
さまに	-11.0398
差別	-11.0399
券	-11.04
人たちの	-11.0401
出て来て	-11.0402
奇怪な	-11.0403
加藤	-11.0403
哀れ	-11.0406
口惜し	-11.0407
誰に	-11.0409
を吹き	-11.041
柴	-11.0411
朝から	-11.0411
どうにか	-11.0411
門前	-11.0413
高校	-11.0413
を借りて	-11.0414
一晩	-11.0414
意味の	-11.0416
エス	-11.0417
化した	-11.0419
にかかる	-11.042
頃の	-11.0422
二時	-11.0422
▁右	-11.0422
サービス	-11.0422
くれない	-11.0423
相対	-11.0424
斑	-11.0424
を入れた	-11.0424
つてしまつた	-11.0427
氏に	-11.0429
越え	-11.043
争い	-11.043
場所に	-11.0432
主観	-11.0434
ロック	-11.0435
作業	-11.0436
ものであろう	-11.0436
られなかった	-11.0438
雨の	-11.0438
顔をした	-11.0438
合わせた	-11.0439
仕様	-11.0441
其處	-11.0441
晝	-11.0442
大層	-11.0446
頃には	-11.0446
測	-11.0447
怪人	-11.0447
感情を	-11.0447
日から	-11.0447
が一人	-11.0449
なくなつて	-11.0449
大尉	-11.0449
の深い	-11.0449
一座	-11.0451
歩いていた	-11.0452
旦那様	-11.0452
かうして	-11.0455
何處	-11.0456
るのです	-11.0456
ゆくと	-11.0457
▁是	-11.0458
重吉	-11.0459
偉い	-11.046
非常	-11.0461
くわ	-11.0462
を発見した	-11.0462
監	-11.0462
警部	-11.0462
地蔵	-11.0464
合せた	-11.0468
役目	-11.0468
小山	-11.0469
▁赤	-11.047
間も	-11.0472
悲しく	-11.0474
柵	-11.0476
ri	-11.0477
つの	-11.0477
町を	-11.0479
コト	-11.0479
つめた	-11.048
どこで	-11.0482
ヘン	-11.0482
なかったのである	-11.0484
▁ふと	-11.0485
一枚の	-11.0487
の方では	-11.0488
べきもの	-11.0489
憲法	-11.0491
歌の	-11.0492
樹木	-11.0492
宣伝	-11.0493
大陸	-11.0493
を聞く	-11.0494
潤	-11.0494
五つ	-11.0494
交わ	-11.0495
じつに	-11.0496
げん	-11.0497
野球	-11.0497
いつのまにか	-11.0498
禄	-11.0498
輔	-11.05
別れて	-11.05
▁歴史	-11.0501
(『	-11.0501
暗黒	-11.0503
入つた	-11.0504
さっきから	-11.0505
の胸	-11.0505
特別な	-11.0506
人として	-11.0506
頓	-11.0507
拡	-11.0507
に反して	-11.0509
懸け	-11.051
紙に	-11.051
哉	-11.051
だけれど	-11.0511
日向	-11.0511
屏風	-11.0512
きって	-11.0514
山々	-11.0514
枠	-11.0515
吏	-11.0516
屍	-11.0518
怠	-11.0519
にあって	-11.0519
左に	-11.0519
人の心	-11.0519
のだつた	-11.052
の前を	-11.052
隊長	-11.0521
最初から	-11.0522
話だ	-11.0523
眸	-11.0525
原稿	-11.0525
練習	-11.0526
ついていた	-11.0526
あう	-11.0529
好んで	-11.053
外出	-11.0531
吠え	-11.0531
キリスト	-11.0533
しましたが	-11.0534
ート	-11.0534
ドラ	-11.0534
権威	-11.0538
況	-11.0538
小屋の	-11.054
背後に	-11.0543
八日	-11.0544
篤	-11.0544
染め	-11.0544
痴	-11.0545
身體	-11.0546
日本では	-11.0547
山中	-11.055
収入	-11.055
只今	-11.055
足袋	-11.0551
土手	-11.0553
××	-11.0555
ここでは	-11.0556
ドロ	-11.0556
大方	-11.0557
品を	-11.0557
すむ	-11.0558
おばさん	-11.056
くれました	-11.056
葉の	-11.0561
企	-11.0561
といふ事	-11.0562
ふところ	-11.0562
信念	-11.0563
あいて	-11.0564
出され	-11.0565
番号	-11.0565
}	-11.0565
大切に	-11.0566
サル	-11.0571
みんなが	-11.0572
脊	-11.0574
どんどん	-11.0575
指定	-11.0578
オリ	-11.0583
をしました	-11.0583
一緒	-11.0585
はないが	-11.0586
犬が	-11.0587
姿は	-11.0587
は又	-11.0588
の所へ	-11.0589
ライブ	-11.0589
むり	-11.0598
かけている	-11.0598
窓に	-11.0598
喰い	-11.0599
多数	-11.0599
クト	-11.0601
奔	-11.0602
應	-11.0602
歳の	-11.0603
撫で	-11.0603
親しみ	-11.0607
ある日	-11.0608
白状	-11.0611
供給	-11.0611
宝石	-11.0611
木の葉	-11.0613
あれほど	-11.0615
バック	-11.0616
注目	-11.0616
フラ	-11.0616
ex	-11.0617
夢を	-11.0618
輝き	-11.0619
すべし	-11.0619
▁Write	-11.0623
▁ことに	-11.0624
わずかに	-11.0625
改造	-11.0626
ないよ	-11.0629
状況	-11.0634
嘗て	-11.0634
出入	-11.0635
訊ねた	-11.0636
顧	-11.0638
無限	-11.0638
してみると	-11.0641
なあに	-11.0641
求	-11.0641
しまひ	-11.0644
修業	-11.0644
真面目な	-11.0644
親しい	-11.0645
戸の	-11.0645
と云えば	-11.0647
騒	-11.0648
そもそも	-11.0648
お前も	-11.0648
じや	-11.0649
足に	-11.065
問答	-11.0651
一度は	-11.0652
ライン	-11.0653
▁此の	-11.0653
▁黒	-11.0653
たたき	-11.0655
言へば	-11.0656
ことについて	-11.0656
歴史の	-11.0658
▁今まで	-11.066
わざ	-11.0662
メイ	-11.0662
領域	-11.0663
私ども	-11.0664
運行	-11.0667
ろうとした	-11.0668
撲	-11.0669
御殿	-11.0669
人影	-11.0671
おまえは	-11.0671
尽く	-11.0671
飯を	-11.0673
ったまま	-11.0673
液	-11.0676
変に	-11.0676
うとする	-11.0677
イタリア	-11.0677
を愛する	-11.0678
雪子	-11.0678
というのも	-11.0678
くろ	-11.068
の男が	-11.068
百年	-11.068
野菜	-11.0681
思えば	-11.0682
休んで	-11.0684
の頃	-11.0684
カント	-11.0685
氣持	-11.0686
▁ですから	-11.0686
はなかなか	-11.0686
明日は	-11.0687
山口	-11.0687
なりし	-11.069
お手	-11.0692
蔓	-11.0692
訓練	-11.0693
...............	-11.0693
お松	-11.0695
ほほ	-11.0696
スク	-11.0697
あわて	-11.0702
いつもの	-11.0702
参ります	-11.0702
堅く	-11.0705
してゆく	-11.0706
前にも	-11.0707
納め	-11.0708
浄	-11.0709
生命の	-11.071
己の	-11.0711
ボート	-11.0711
聞えて	-11.0712
綺麗	-11.0713
同様	-11.0713
衰	-11.0714
浴衣	-11.0716
狂人	-11.0716
手足	-11.0717
瑞	-11.0717
振舞	-11.0718
ポー	-11.0719
思っていた	-11.072
通って	-11.0721
肉を	-11.0721
大統領	-11.0722
にせよ	-11.0723
ケー	-11.0727
嶺	-11.0727
をもった	-11.0732
範疇	-11.0732
事情を	-11.0734
と云っても	-11.0735
からだを	-11.0736
ub	-11.0737
法則	-11.0738
載せて	-11.0739
反射	-11.074
の位置	-11.074
吾輩	-11.0743
堪え	-11.0745
ように見えた	-11.0747
背負	-11.0747
正体	-11.0749
心も	-11.075
方も	-11.0751
られてゐる	-11.0752
蘆	-11.0752
のほうが	-11.0752
僕たち	-11.0753
すえ	-11.0753
だけのこと	-11.0754
▁わたし	-11.0754
に堪え	-11.0756
伊豆	-11.0757
右門	-11.0757
徐	-11.0761
店を	-11.0761
あきらめ	-11.0762
圧迫	-11.0763
もんだから	-11.0767
酔い	-11.0768
お母さんは	-11.0771
齢	-11.0772
手術	-11.0773
は言った	-11.0773
だろうが	-11.0774
まれる	-11.0776
キャラクター	-11.0777
盗み	-11.0777
ふだん	-11.0779
▁すべて	-11.0781
その前に	-11.0781
はん	-11.0782
圏	-11.0782
姑	-11.0782
人々に	-11.0783
震え	-11.0785
に至った	-11.0785
鋭く	-11.0785
飽	-11.0786
百円	-11.0786
ないうちに	-11.0786
だということ	-11.0788
だと思って	-11.079
控え	-11.0791
づいて	-11.0791
いるのか	-11.0792
峯	-11.0792
しているのだ	-11.0794
書かれた	-11.0796
おけ	-11.0797
ひま	-11.0798
どうでも	-11.0799
毛の	-11.0802
▁したがって	-11.0802
碧	-11.0802
足利	-11.0803
噛	-11.0804
政党	-11.0805
蜘蛛	-11.0807
止めて	-11.0808
声をかけた	-11.0809
ルイ	-11.081
繪	-11.0813
子も	-11.0814
ねて	-11.0815
りっぱな	-11.0815
あはれ	-11.0819
何時も	-11.0819
れど	-11.0819
するので	-11.082
自分から	-11.082
掻	-11.082
働か	-11.082
たびたび	-11.0823
同盟	-11.0824
▁あんな	-11.0825
遣り	-11.0826
ふしぎ	-11.0826
路の	-11.0826
烟	-11.0827
武田	-11.0829
口へ	-11.0829
億	-11.0832
視線	-11.0832
ルト	-11.0833
まつたく	-11.0834
▁-)	-11.0835
広島	-11.0837
冒険	-11.0838
んだり	-11.084
を始めた	-11.0841
end	-11.0843
へお	-11.0844
顔も	-11.0844
絡	-11.0846
ねん	-11.0848
往復	-11.0849
ove	-11.0849
ゐたが	-11.0849
親爺	-11.0851
に在る	-11.0852
滞在	-11.0853
経過	-11.0856
祈祷	-11.0858
でなければならない	-11.0858
li	-11.0859
風流	-11.0862
を眺め	-11.0862
ざし	-11.0865
▁八月	-11.0866
葬式	-11.0866
▁h	-11.0867
▁先生は	-11.0867
長男	-11.0869
平次の	-11.087
青春	-11.087
気づか	-11.087
待つて	-11.087
ツて	-11.0872
▁そこは	-11.0872
歯を	-11.0873
貢	-11.0873
砕	-11.0874
生じた	-11.0875
はもちろん	-11.0875
らしさ	-11.0875
にしては	-11.0876
七時	-11.0877
抑え	-11.0879
運んで	-11.0879
▁}	-11.0879
八重	-11.0881
めいて	-11.0881
在る	-11.0882
気で	-11.0883
▁夏	-11.0883
はすべて	-11.0884
受ける	-11.0884
答へ	-11.0885
瀬戸	-11.0886
充	-11.0886
はずはない	-11.0889
はじめる	-11.0889
筆を	-11.0889
になったら	-11.089
知れた	-11.0891
を見ながら	-11.0892
轟	-11.0893
の人物	-11.0894
跳ね	-11.0894
之は	-11.0896
原始	-11.0897
足もと	-11.0897
漆	-11.0899
云は	-11.0899
想い	-11.0899
関連	-11.0899
はっと	-11.0899
さびしい	-11.0899
me	-11.0903
上がった	-11.0903
なかったが	-11.0904
つけられて	-11.0905
べからず	-11.0905
粋	-11.0908
道が	-11.0909
▁されど	-11.0909
を切り	-11.0909
牛乳	-11.0911
▁現に	-11.0911
本郷	-11.0912
とかく	-11.0913
杜	-11.0914
弄	-11.0914
str	-11.0916
仮名	-11.0916
父と	-11.0919
馴れ	-11.0919
だぜ	-11.092
ぺ	-11.092
箪笥	-11.0924
これだけの	-11.0926
一団	-11.0928
箇	-11.0928
新たな	-11.0928
若く	-11.0929
山本	-11.093
索	-11.0931
▁午後	-11.0932
欄	-11.0933
斯く	-11.0933
企て	-11.0935
から来た	-11.0936
賛	-11.0937
すこぶる	-11.094
王の	-11.0941
▁2,	-11.0942
サア	-11.0943
疑う	-11.0943
子孫	-11.0944
たまらない	-11.0945
が必要	-11.0945
もあって	-11.0945
草を	-11.0945
尊氏	-11.0946
を残して	-11.0946
容子	-11.0947
石垣	-11.0947
二階に	-11.0948
アナ	-11.0948
鎌	-11.0949
の変化	-11.0949
であつたが	-11.095
ファー	-11.095
▁九月	-11.095
▁要するに	-11.0952
概	-11.0954
枯れ	-11.0955
恋の	-11.0956
類の	-11.0956
不自由	-11.0956
かしこ	-11.0957
蜀	-11.096
▁その日	-11.0961
七兵衛	-11.0961
直す	-11.0961
汽船	-11.0964
撰	-11.0965
筈である	-11.0965
でないと	-11.0966
乱暴	-11.0967
如き	-11.0969
カード	-11.0973
行われる	-11.0974
たような	-11.0975
様々な	-11.0975
の耳に	-11.0976
亂	-11.0979
蚊帳	-11.0981
心配して	-11.0983
しかた	-11.0986
出ると	-11.0987
70	-11.0989
('	-11.0991
者がある	-11.0991
だれか	-11.0992
といわれる	-11.0993
ちゃんが	-11.0994
額の	-11.0994
に属する	-11.0994
じぶん	-11.0996
マリ	-11.0997
むく	-11.0999
斎藤	-11.0999
働	-11.1
フォン	-11.1001
ソロ	-11.1003
妻に	-11.1004
食事を	-11.1004
といふことを	-11.1007
ばん	-11.1009
雰囲気	-11.1011
參	-11.1012
覺え	-11.1012
従来	-11.1013
シル	-11.1013
覺	-11.1014
海上	-11.1016
エンジン	-11.1016
を踏み	-11.102
始める	-11.102
技巧	-11.1022
消し	-11.1023
が起った	-11.1023
社会主義	-11.1024
ひろ子	-11.1024
附近	-11.1025
余地	-11.1025
というところ	-11.1026
取扱	-11.1026
ふれ	-11.1027
こそは	-11.1027
渠	-11.1028
つて行つた	-11.1029
を待ち	-11.103
珍しく	-11.1031
聞くと	-11.1031
叫んで	-11.1032
冥	-11.1037
二千	-11.1038
溜息	-11.1038
35	-11.1039
部に	-11.1039
▁七月	-11.1039
越した	-11.1041
om	-11.1042
聞いている	-11.1043
思はれ	-11.1043
戸外	-11.1046
を含む	-11.1046
牡丹	-11.1047
匂い	-11.1047
心中	-11.1049
を知って	-11.1049
わからなかった	-11.1049
扉を	-11.1049
ませんよ	-11.1051
飮	-11.1051
と云うこと	-11.1054
総合	-11.1054
んでゐる	-11.1054
上陸	-11.1057
妨げ	-11.1061
終了	-11.1062
群衆	-11.1063
頬に	-11.1066
裂	-11.1066
吉野	-11.1069
光の	-11.107
セイ	-11.1073
軍隊	-11.1074
吟	-11.1074
飛び出して	-11.1074
という名	-11.1075
近江	-11.1076
の者が	-11.1079
企画	-11.1079
緑の	-11.108
金吾	-11.1081
付近	-11.1082
土産	-11.1082
そと	-11.1082
伸子	-11.1083
父親の	-11.1084
きのう	-11.1084
を送って	-11.1085
苔	-11.1085
生命を	-11.1085
いかが	-11.1087
國の	-11.1087
文學	-11.1088
積んで	-11.109
きょうは	-11.1094
駄	-11.1096
ッツ	-11.1098
一五	-11.1098
骨を	-11.1099
であることは	-11.1101
と称する	-11.1101
それ自身	-11.1102
鐵	-11.1103
喋	-11.1104
一文	-11.1105
入道	-11.1106
所が	-11.1107
大佐	-11.1109
ないような	-11.1109
ものでない	-11.1109
文学的	-11.1111
を失	-11.1114
よかつた	-11.1115
単純な	-11.1116
ていて	-11.1119
どうかして	-11.112
館の	-11.1122
度の	-11.1123
であったろう	-11.1124
證	-11.1124
学校へ	-11.1125
▁be	-11.1125
あたりは	-11.1126
摩	-11.1127
ヅ	-11.113
屹度	-11.113
婢	-11.113
と見て	-11.1131
してみた	-11.1131
あらわ	-11.1131
屍体	-11.1132
市長	-11.1132
所から	-11.1134
渡す	-11.1134
診	-11.1134
あらわれた	-11.1134
であれば	-11.1135
と見る	-11.1138
南部	-11.1138
何処に	-11.1138
たずねた	-11.1138
あなた方	-11.1139
五郎は	-11.114
倒れて	-11.114
政府の	-11.1142
直観	-11.1143
めに	-11.1146
まする	-11.1146
ざら	-11.1148
したか	-11.1149
小判	-11.115
講演	-11.1151
父に	-11.1152
シャン	-11.1153
止ま	-11.1154
たりする	-11.1155
死亡	-11.1158
▁初	-11.1159
るのに	-11.116
ところまで	-11.1161
祈	-11.1161
百合	-11.1161
素直に	-11.1162
履	-11.1164
豹	-11.1165
小説家	-11.1165
路線	-11.1165
後世	-11.1166
きまり	-11.1166
が見え	-11.1168
ふたりの	-11.1168
各地	-11.1169
なんだから	-11.117
拡大	-11.1171
ということに	-11.1171
にもなる	-11.1172
になってしまう	-11.1175
起きた	-11.1176
だからね	-11.1177
はるかに	-11.1177
さよう	-11.1177
強いて	-11.1177
頭巾	-11.1178
ことでしょう	-11.1178
商業	-11.1178
めば	-11.1178
根を	-11.118
径	-11.118
何人	-11.1181
キュ	-11.1181
掴	-11.1182
感じられた	-11.1185
つこ	-11.1185
垢	-11.1189
とめて	-11.119
馳け	-11.1192
逃れ	-11.1194
まない	-11.1194
わせて	-11.1194
悲鳴	-11.1194
わるく	-11.1196
うま	-11.1196
仲間の	-11.1197
▁第三	-11.1198
私達の	-11.1199
渡辺	-11.1199
無言	-11.12
話で	-11.12
煙草を	-11.12
だめ	-11.1201
三尺	-11.1202
気質	-11.1204
一等	-11.1205
外国人	-11.1205
口が	-11.1206
貪	-11.1208
感じが	-11.1208
音に	-11.1213
得られる	-11.1213
目には	-11.1213
れん	-11.1214
▁というのは	-11.1214
▁四月	-11.1216
どういふ	-11.1217
はいなかった	-11.122
までもなく	-11.122
茶の間	-11.1221
▁そのうち	-11.1223
もなかつた	-11.1224
の方の	-11.1225
近づく	-11.1228
コップ	-11.1231
▁今は	-11.1232
こり	-11.1233
見えました	-11.1236
支持	-11.1238
真面目	-11.1238
店に	-11.1239
が如く	-11.1239
45	-11.1239
いまだ	-11.124
ものであつた	-11.124
すすめ	-11.1241
込まれた	-11.1241
あそこ	-11.1242
探り	-11.1245
鉱	-11.1245
占領	-11.1246
性が	-11.1246
の色が	-11.1251
説明する	-11.1252
の道を	-11.1252
腹が	-11.1253
幸子	-11.1255
選択	-11.1256
了った	-11.1256
と聞いて	-11.1258
のことです	-11.1258
プレ	-11.1261
側へ	-11.1261
しております	-11.1263
じょう	-11.1264
耽	-11.1264
人類の	-11.1266
乱れ	-11.1266
風情	-11.1266
なっていた	-11.1267
であったか	-11.1268
ロス	-11.1269
曰	-11.1269
ははあ	-11.127
書いている	-11.1271
女だ	-11.1272
愛想	-11.1273
きれない	-11.1274
階級の	-11.1276
靄	-11.1276
おじいさん	-11.1279
▁三月	-11.1279
に似	-11.1281
おばあさん	-11.1281
この際	-11.1282
チョ	-11.1283
同じように	-11.1283
ーク	-11.1285
そうですか	-11.1286
もせずに	-11.1287
描いた	-11.1287
を抱き	-11.1288
入口の	-11.129
裁判	-11.1291
何一つ	-11.1295
帰って来る	-11.1296
op	-11.1297
第五	-11.1299
存する	-11.1301
ディー	-11.1302
自転車	-11.1303
さうで	-11.1303
新聞に	-11.1305
賤	-11.1305
狂言	-11.1307
口調で	-11.1309
抱いて	-11.131
穏	-11.1312
虹	-11.1313
淺	-11.1313
影が	-11.1314
三角	-11.1315
もしないで	-11.1317
輿	-11.1317
換	-11.1317
人がある	-11.1318
伏せ	-11.1318
を使う	-11.1318
味噌	-11.1318
出世	-11.1319
輸入	-11.1319
などゝ	-11.1319
ガラッ八	-11.132
なくちゃ	-11.1321
国民の	-11.1327
この種の	-11.1327
少しずつ	-11.1328
照り	-11.1328
横町	-11.1329
提出	-11.133
費用	-11.1331
厄介	-11.1332
黄色い	-11.1333
金属	-11.1335
悪戯	-11.1339
措	-11.1339
なるものは	-11.134
守り	-11.134
の側に	-11.134
覗き	-11.1341
たりと	-11.1343
話をした	-11.1345
女史	-11.1346
科学者	-11.1346
おど	-11.1347
描いて	-11.1347
ねた	-11.1348
かわいそう	-11.135
鞘	-11.1351
垂れて	-11.1351
科学の	-11.1351
合戦	-11.1353
高橋	-11.1355
底に	-11.1357
▁かつて	-11.1358
翻	-11.1359
捲	-11.136
の用意	-11.1364
述べ	-11.1364
の中でも	-11.1364
(18	-11.1366
げる	-11.1367
里の	-11.1368
親友	-11.137
ずして	-11.137
出かけた	-11.1371
のであって	-11.1371
槌	-11.1372
しまいます	-11.1374
場で	-11.1376
を見れば	-11.1376
庇	-11.1377
編集	-11.1377
死人	-11.1379
開けた	-11.138
の中では	-11.138
やがった	-11.1381
己は	-11.1382
▁それには	-11.1382
学士	-11.1382
零	-11.1383
を殺す	-11.1384
寺に	-11.1385
ドゥ	-11.1386
屋は	-11.1386
せしめる	-11.1386
問題が	-11.1386
力に	-11.139
初代	-11.139
入って来た	-11.1391
その点	-11.1391
ぬき	-11.1392
備え	-11.1393
餘り	-11.1393
もまだ	-11.1395
のみで	-11.1395
何でもない	-11.1399
ありがたい	-11.14
分って	-11.1401
になれ	-11.1401
声がした	-11.1402
近年	-11.1402
退け	-11.1402
まへ	-11.1403
を通って	-11.1404
小次郎	-11.1406
た時	-11.1407
銀の	-11.1407
梢	-11.1407
はあるが	-11.1408
なりき	-11.1408
妻が	-11.1408
住宅	-11.1408
ラム	-11.1413
いまは	-11.1414
に適	-11.1415
ect	-11.1416
写生	-11.1416
お出で	-11.1418
仙台	-11.1418
おさ	-11.1419
漬	-11.1421
ことが出来ない	-11.1425
の名前	-11.1425
別な	-11.1427
を殺して	-11.1427
千円	-11.1428
るようになった	-11.143
壁の	-11.1434
どれほど	-11.1436
引いて	-11.144
人目	-11.1442
なつかしい	-11.1444
批評家	-11.145
お銀様	-11.145
こは	-11.1451
てしまいました	-11.1451
市街	-11.1451
器械	-11.1452
覚えている	-11.1453
敵を	-11.1454
のせい	-11.1454
そういって	-11.1454
まだまだ	-11.1455
保証	-11.1455
よみ	-11.1457
なかったので	-11.1461
を認め	-11.1461
見たが	-11.1464
見られ	-11.1466
▁all	-11.1467
▁松	-11.1467
やると	-11.1467
打って	-11.1469
不動	-11.147
登る	-11.147
財布	-11.147
あつ	-11.147
渓	-11.1472
についた	-11.1472
子供に	-11.1472
一間	-11.1473
の上には	-11.1473
びて	-11.1475
まぎれ	-11.1478
ツト	-11.1478
その女	-11.1478
咲く	-11.1478
錠	-11.1478
遺憾	-11.1479
いるか	-11.1479
...	-11.1479
内地	-11.1479
瑠璃子	-11.1481
をかいて	-11.1482
がないから	-11.1482
蔵は	-11.1486
愛嬌	-11.149
止む	-11.1491
締	-11.1492
大切	-11.1492
作品の	-11.1493
ちゅう	-11.1495
もあるが	-11.1496
仮面	-11.1496
の顔は	-11.1497
料理屋	-11.1497
する時	-11.1497
有難う	-11.1498
生ずる	-11.1499
少しは	-11.15
麿	-11.15
会った	-11.1501
どうしたんだ	-11.1504
呂	-11.1504
にとり	-11.1504
では無い	-11.1505
済む	-11.1506
削	-11.1508
優れた	-11.151
テー	-11.151
目の前に	-11.1511
の角	-11.1511
この通り	-11.1512
についての	-11.1512
だち	-11.1513
召し	-11.1516
淀	-11.1517
しまふ	-11.1517
を読んだ	-11.1518
真面目に	-11.152
を眺めて	-11.152
pe	-11.152
らしいもの	-11.1521
方から	-11.1522
を買い	-11.1523
べて	-11.1524
ぬる	-11.1526
んぼ	-11.1526
というと	-11.1527
モウ	-11.1529
近づき	-11.1529
郵便局	-11.1529
細く	-11.153
身動き	-11.153
............	-11.153
楽屋	-11.1531
感想	-11.1532
洗濯	-11.1533
鯨	-11.1533
彼の心	-11.1535
出來る	-11.1536
ヶ月	-11.1537
紫の	-11.1537
徹底	-11.1538
たまたま	-11.1538
金持	-11.1538
細かい	-11.1541
終ると	-11.1541
少しでも	-11.1543
堕落	-11.1545
▁翌日	-11.1547
わねえ	-11.1547
の強い	-11.1548
の匂い	-11.1549
ませんか	-11.1557
いままで	-11.1558
ばかりではない	-11.1559
かど	-11.156
▁あゝ	-11.1563
伺い	-11.1563
上つた	-11.1564
直接に	-11.1565
微笑を	-11.1568
▁t	-11.157
沖縄	-11.1572
ot	-11.1577
違ふ	-11.1578
ゲル	-11.1578
払って	-11.1578
するには	-11.1578
言はれ	-11.1579
かけていた	-11.1579
惚れ	-11.158
おかあさん	-11.1582
平凡な	-11.1582
全体の	-11.1584
出来て	-11.1584
さうして	-11.1585
寧	-11.1586
じゃねえ	-11.1587
案じ	-11.1587
たまえ	-11.1589
パッと	-11.1589
高山	-11.1589
済んだ	-11.159
古来	-11.1592
怒って	-11.1593
やけ	-11.1593
ある時	-11.1593
答へた	-11.1594
に対しても	-11.1596
昨日の	-11.1598
提供	-11.16
ざま	-11.1601
地上に	-11.1602
新聞の	-11.1602
花が	-11.1603
そういうこと	-11.1604
君たち	-11.1604
中でも	-11.1604
ようでした	-11.1604
バンド	-11.1605
仕掛け	-11.1606
と同様に	-11.1606
▁sum	-11.1606
飲ま	-11.1607
唯物論	-11.1609
いること	-11.161
のほうは	-11.161
醜い	-11.1611
高き	-11.1612
▁それ故	-11.1613
農家	-11.1613
自然と	-11.1614
鶯	-11.1614
ができ	-11.1616
▁ある日	-11.1616
できるだけ	-11.1618
そこが	-11.1618
西洋人	-11.1618
夜半	-11.1619
▁あるいは	-11.1621
con	-11.1621
えっ	-11.1622
わせ	-11.1623
水面	-11.1625
二つに	-11.1625
一帯	-11.1625
審	-11.1628
するのだ	-11.1629
響いて	-11.1629
電灯	-11.163
ひし	-11.1631
時も	-11.1633
が故に	-11.1634
登山	-11.1635
光明	-11.1636
据え	-11.1636
原則	-11.1637
ないのは	-11.1637
額を	-11.164
ほろ	-11.164
であったから	-11.1641
ソレ	-11.1643
▁六月	-11.1643
拡げ	-11.1643
参り	-11.1643
灰色の	-11.1644
白粉	-11.1644
何れ	-11.1648
噴	-11.1649
カッ	-11.165
まかせ	-11.1651
誰れ	-11.1651
▁いったい	-11.1652
上がる	-11.1652
気の毒な	-11.1652
夷	-11.1653
蟻	-11.1653
續	-11.1657
俄に	-11.1657
椎	-11.1658
猫の	-11.1661
似た	-11.1663
▁私たちは	-11.1664
信州	-11.1665
記述	-11.1665
胃	-11.1666
を起して	-11.1666
これ以上	-11.1667
番の	-11.1667
敢て	-11.1668
三十年	-11.1668
せんと	-11.167
独逸	-11.167
千鶴子	-11.167
しているのである	-11.1671
ハッ	-11.1672
新聞社	-11.1672
席を	-11.1674
も少し	-11.1674
王様	-11.1676
反映	-11.1676
付ける	-11.1679
訪ね	-11.168
いくらでも	-11.168
大丈夫だ	-11.168
竜之助	-11.1681
聖書	-11.1681
起り	-11.1683
ドラマ	-11.1683
ございました	-11.1684
雜	-11.1685
つづく	-11.1687
ふたりは	-11.1687
るため	-11.1687
腰をかけ	-11.1687
最大の	-11.1688
無かつた	-11.1688
解説	-11.1688
洩れ	-11.1689
希	-11.169
をうけて	-11.1691
木綿	-11.1692
話をする	-11.1692
小児	-11.1695
四人の	-11.1695
さまが	-11.1695
切れない	-11.1696
に当って	-11.1697
安い	-11.1697
基本	-11.1699
アア	-11.1699
雨に	-11.1702
もしも	-11.1704
一冊	-11.1706
も無く	-11.1706
注意して	-11.1706
太郎が	-11.1707
盃を	-11.1707
越し	-11.1707
博物館	-11.1708
るべし	-11.1708
悩み	-11.1709
あるのは	-11.1712
玩具	-11.1713
ズボン	-11.1716
範	-11.172
荷物を	-11.172
見舞	-11.172
腰に	-11.1721
受けて	-11.1721
ェ	-11.1723
らんと	-11.1724
いろいろと	-11.1725
▁特に	-11.1726
松は	-11.1727
があるか	-11.173
貌	-11.1731
おやじ	-11.1733
分らぬ	-11.1733
同様に	-11.1733
判る	-11.1736
気もち	-11.1738
懇	-11.1739
▁僕が	-11.1739
呼ば	-11.1739
へ入って	-11.1741
▁よし	-11.1741
ござります	-11.1741
被害	-11.1743
慮	-11.1743
でありましょう	-11.1743
の写真	-11.1745
と同様	-11.1745
困	-11.1746
ることができる	-11.1746
帖	-11.1746
はみな	-11.1747
れず	-11.1747
躍り	-11.1748
を知ら	-11.1748
あした	-11.175
人種	-11.1751
の方法	-11.1751
報道	-11.1753
つもりだ	-11.1753
の流れ	-11.1756
とみえて	-11.1757
ゅう	-11.1757
起き上	-11.1757
従来の	-11.1758
態度を	-11.1758
わが国	-11.1759
喜ぶ	-11.1761
があったら	-11.1761
▁昨日	-11.1761
の間には	-11.1762
歩きながら	-11.1763
かかっている	-11.1763
規模	-11.1763
の入口	-11.1763
たゝ	-11.1764
船に	-11.1764
妾は	-11.1766
できなかった	-11.1766
のほうに	-11.1768
いつて	-11.177
といったような	-11.177
ぶん	-11.177
でございますよ	-11.1774
▁さういふ	-11.1775
さっと	-11.1775
外部	-11.1778
体系	-11.1778
やられた	-11.1779
瓦斯	-11.178
すように	-11.1781
だなあ	-11.1785
説を	-11.1785
ふいに	-11.1786
僅かに	-11.1786
はあまり	-11.1788
を取った	-11.1789
固より	-11.1789
トラック	-11.179
おいら	-11.1791
いたずら	-11.1792
ぎわ	-11.1793
駕	-11.1795
を借り	-11.1796
感じる	-11.1797
神に	-11.1798
前後の	-11.1799
頭は	-11.1801
ソヴェト	-11.1802
鉛筆	-11.1802
を覚えた	-11.1802
申しました	-11.1802
庭へ	-11.1802
醒	-11.1806
人達は	-11.1807
筈の	-11.1807
知つた	-11.1807
▁しかしその	-11.1807
を示した	-11.1808
妖怪	-11.1809
ちっと	-11.181
窺	-11.181
卯	-11.1811
背に	-11.1811
名前を	-11.1813
回復	-11.1813
舌を	-11.1817
の一人が	-11.182
くさい	-11.182
さっきの	-11.182
ものでした	-11.182
ut	-11.182
▁何しろ	-11.182
をります	-11.1821
住んで	-11.1821
点で	-11.1821
※(	-11.1823
撒	-11.1824
語った	-11.1824
開業	-11.1824
みろ	-11.1824
したまま	-11.1824
これより	-11.1825
共通	-11.1826
の中にも	-11.1826
▁two	-11.1829
魯	-11.183
おれに	-11.1831
てんで	-11.1832
使う	-11.1832
少なく	-11.1832
之進	-11.1833
呼んだ	-11.1833
叙	-11.1835
シャー	-11.1835
キリスト教	-11.1835
ござる	-11.1837
妙子	-11.1838
シア	-11.1841
江戸へ	-11.1841
矢張	-11.1842
あいつは	-11.1844
を眺めた	-11.1847
音の	-11.1847
病室	-11.1848
の父	-11.185
連合	-11.185
へ行き	-11.1851
▁と言って	-11.1853
一度に	-11.1855
默つて	-11.1858
怪し	-11.1859
消費	-11.1859
藍	-11.1861
改革	-11.1864
装飾	-11.1865
一里	-11.1865
永く	-11.1866
伊達	-11.1866
になつてゐた	-11.1867
歸り	-11.1867
頃は	-11.1867
一句	-11.1868
▁十月	-11.1868
秦	-11.1869
を集めて	-11.1869
夜中	-11.1869
ようか	-11.187
顔つき	-11.1871
教へ	-11.1871
▁余は	-11.1872
のうえに	-11.1873
漁師	-11.1874
言え	-11.1874
嚢	-11.1874
たくさんの	-11.1875
最初は	-11.1876
お互に	-11.1877
he	-11.1878
ことはできない	-11.1881
了つた	-11.1881
ことがあります	-11.1881
云え	-11.1886
魂の	-11.1887
の出来事	-11.1888
しかつた	-11.1889
夜も	-11.189
眠る	-11.1892
んだらう	-11.1893
ゆゑ	-11.1893
中止	-11.1894
信じて	-11.1897
向ひ	-11.1897
▁無論	-11.1899
行かう	-11.1901
殺される	-11.1901
攻	-11.1901
乞	-11.1901
自分の心	-11.1902
なくして	-11.1902
弦	-11.1902
民間	-11.1904
迷い	-11.1907
残っていた	-11.1907
なぞは	-11.1911
見られた	-11.1911
しり	-11.1912
あとを	-11.1916
に依って	-11.1916
へ帰って	-11.1916
仕合せ	-11.1922
符	-11.1922
と答えた	-11.1922
お米	-11.1924
大きな声で	-11.1929
召使	-11.193
鳶	-11.193
彼等が	-11.1931
慈	-11.1932
セー	-11.1933
>	-11.1933
見ない	-11.1933
の息子	-11.1935
自分の家	-11.1936
与え	-11.1936
▁何故	-11.1936
▁なに	-11.1937
体は	-11.1937
来たので	-11.1938
を蹴	-11.194
一七	-11.194
委員	-11.1941
▁3,	-11.1941
嘘を	-11.1942
の如きは	-11.1942
三本	-11.1943
あわれ	-11.1943
例へば	-11.1944
末の	-11.1946
十三日	-11.1946
真剣	-11.1947
致しました	-11.195
の時に	-11.195
朝廷	-11.1951
2003	-11.1952
つめて	-11.1953
問屋	-11.1956
昨年	-11.1957
完全	-11.1957
湖水	-11.1958
娘さん	-11.1958
招待	-11.1959
將	-11.1959
をさし	-11.1961
音がした	-11.1961
持っていた	-11.1963
ンと	-11.1963
おうと	-11.1963
みながら	-11.1963
を語る	-11.1963
どうかすると	-11.1965
奮	-11.1965
起こる	-11.1965
の噂	-11.1966
最上	-11.1969
立たない	-11.1969
大根	-11.197
この世に	-11.197
みたが	-11.1972
維新	-11.1972
何年	-11.1973
客観的	-11.1975
であるという	-11.1977
告げた	-11.1977
潔	-11.1977
室で	-11.1978
ばかりか	-11.198
▁<	-11.1981
櫓	-11.1981
居ます	-11.1982
つねに	-11.1982
散り	-11.1983
改良	-11.1985
生え	-11.1985
一杯に	-11.1985
を負	-11.1987
苗	-11.1989
一羽	-11.199
エッ	-11.1991
代目	-11.1991
が非常に	-11.1993
設備	-11.1994
評論	-11.1995
動かない	-11.1997
ゼル	-11.1999
字を	-11.2
見廻	-11.2001
伝へ	-11.2002
与えられた	-11.2003
外で	-11.2003
設定	-11.2003
切つて	-11.2004
する所	-11.2005
降りた	-11.2006
の意見	-11.2008
托	-11.201
やらう	-11.201
青く	-11.2011
に住む	-11.2014
を与えて	-11.2014
誦	-11.2015
割れ	-11.2015
なつかし	-11.2016
()	-11.2018
尋	-11.2019
を打って	-11.202
併	-11.202
一生懸命	-11.2023
秀子	-11.2024
れども	-11.2024
出てきた	-11.2025
上海	-11.2026
夕飯	-11.2027
吾々	-11.2027
心得て	-11.2028
事件が	-11.2028
ミル	-11.2028
るよ	-11.2028
▁といって	-11.203
るのか	-11.2033
助けて	-11.2033
監視	-11.2033
思わ	-11.2034
便宜	-11.2036
の屋根	-11.2037
勝手な	-11.2038
延び	-11.2038
キング	-11.2041
ことでした	-11.2041
吉原	-11.2041
重要	-11.2042
現われる	-11.2043
疾	-11.2044
訴え	-11.2045
――「	-11.2045
じつは	-11.2045
鞍	-11.2046
したものである	-11.2048
食べた	-11.2048
などとは	-11.2049
祀	-11.2049
前者	-11.2054
艦隊	-11.2056
それだけの	-11.2057
浮き	-11.2061
いうこと	-11.2062
曾て	-11.2064
たちを	-11.2065
の死骸	-11.2066
うしろから	-11.2066
我々が	-11.2068
オヤ	-11.2068
見ますと	-11.2069
美濃	-11.2069
▁自分が	-11.2071
を指して	-11.2073
知らずに	-11.2073
190	-11.2074
なります	-11.2077
空地	-11.2078
未亡人	-11.2078
侮辱	-11.2078
自由な	-11.2078
己が	-11.2078
力と	-11.2079
揺れ	-11.2081
氏と	-11.2081
あぶない	-11.2082
と考えられる	-11.2082
嘲	-11.2084
の胸に	-11.2084
姿の	-11.2085
に飛び	-11.2087
和田	-11.2088
湛	-11.2089
検査	-11.209
営業	-11.2093
瀧	-11.2095
その翌日	-11.2096
友情	-11.2097
処置	-11.2098
固定	-11.2099
一段	-11.2099
しようとした	-11.21
▁森	-11.21
のことであった	-11.21
é	-11.2101
遠くから	-11.2101
修行	-11.2102
止める	-11.2104
人工	-11.2105
か分らない	-11.2106
みつ	-11.2106
わけて	-11.2107
箸	-11.2108
嫂	-11.2112
変え	-11.2114
既	-11.2115
行燈	-11.2116
座の	-11.2118
陵	-11.2118
讀	-11.2118
醉	-11.2118
ング	-11.2118
を出し	-11.2119
▁as	-11.2119
ホン	-11.2122
太田	-11.2122
軍は	-11.2123
その手	-11.2124
つかない	-11.2125
同僚	-11.2125
ことや	-11.2127
事物	-11.2129
家では	-11.213
てやる	-11.213
さすが	-11.213
はいよいよ	-11.2133
爭	-11.2135
警視庁	-11.2135
になってから	-11.2136
京都の	-11.2136
がつく	-11.2137
兼ねて	-11.2138
夢中	-11.2138
あり得ない	-11.214
場へ	-11.2141
擬	-11.2141
競技	-11.2142
芸人	-11.2147
書か	-11.2148
ますまい	-11.2148
山脈	-11.2149
集め	-11.215
へ帰る	-11.2151
俺も	-11.2152
その中で	-11.2153
熱心	-11.2154
我輩	-11.2155
聞こえ	-11.2155
はたして	-11.2155
痩せ	-11.2155
ったもの	-11.2156
タイトル	-11.2159
ハッと	-11.2159
を見ていた	-11.216
ではあるまい	-11.2161
▁data	-11.2162
二度と	-11.2162
おそれ	-11.2162
こす	-11.2164
腹の	-11.2166
国道	-11.2167
絵画	-11.2168
レット	-11.2169
あれを	-11.2169
掲載	-11.217
セント	-11.2171
内儀	-11.2171
維持	-11.2172
じき	-11.2175
月の光	-11.2176
治療	-11.2179
雨戸	-11.2179
堅い	-11.218
古今	-11.218
貿易	-11.2181
あくまで	-11.2183
誇張	-11.2183
唸	-11.2184
▁まして	-11.2184
のみが	-11.2185
声の	-11.2187
ぢつと	-11.2187
立たせ	-11.2188
お寺	-11.2191
お蝶	-11.2191
の大きさ	-11.2192
クラス	-11.2193
ゴン	-11.2195
この女	-11.2196
しておいて	-11.2196
凄い	-11.2197
められて	-11.2198
欄干	-11.2199
化学	-11.2204
互	-11.2205
戻つて	-11.2206
いるから	-11.2207
秀吉は	-11.2207
喫	-11.2207
の灯	-11.2208
その男は	-11.2208
家も	-11.2209
かけると	-11.221
指摘	-11.221
分別	-11.2211
へんな	-11.2212
古く	-11.2216
人殺し	-11.2218
怖ろしい	-11.222
ap	-11.2221
著しく	-11.2221
にしか	-11.2222
そのものが	-11.2224
ビン	-11.2224
途端に	-11.2224
いたのは	-11.2224
アジア	-11.2225
顫え	-11.2226
いつまで	-11.2226
婚	-11.2228
裁判所	-11.2228
食べて	-11.2229
住んでいる	-11.2229
今晩	-11.2229
の必要	-11.223
どうしたの	-11.223
感じられる	-11.223
任務	-11.2231
こたえ	-11.2232
ハハハ	-11.2232
伴れて	-11.2233
が少し	-11.2235
減少	-11.2235
掴み	-11.2236
叢	-11.2238
父さん	-11.2239
なま	-11.2239
ンス	-11.2239
はございません	-11.2241
金五郎	-11.2242
するのを	-11.2243
以前から	-11.2243
を手に	-11.2243
われている	-11.2244
ライト	-11.2244
上人	-11.2247
忍んで	-11.2248
京子	-11.2251
承認	-11.2251
まんま	-11.2251
いてゐる	-11.2252
スーパー	-11.2252
歌は	-11.2252
文書	-11.2252
いそ	-11.2254
虫が	-11.2254
衝動	-11.2256
内へ	-11.2256
と相	-11.2257
濡れた	-11.2258
貼	-11.2258
引つ	-11.2258
自体	-11.226
そういった	-11.2262
臆病	-11.2262
岸に	-11.2263
袖を	-11.2265
代々	-11.2265
真っ	-11.2265
ine	-11.2266
材木	-11.2267
﹆	-11.2267
っち	-11.2269
街路	-11.227
ねむ	-11.227
やり方	-11.2271
書籍	-11.2272
部長	-11.2272
汝の	-11.2274
気づいた	-11.2276
小説の	-11.2276
の仲間	-11.2277
島に	-11.2278
そいつ	-11.2278
妻と	-11.2278
解剖	-11.2279
致し	-11.2279
の長い	-11.2281
伝わって	-11.2281
青山	-11.2282
ばかりが	-11.2282
のでせう	-11.2283
前まで	-11.2283
々とした	-11.2283
マッチ	-11.2284
ことができた	-11.2284
焚	-11.2285
幾日	-11.2285
穀物	-11.2285
附き	-11.2286
さては	-11.2287
天使	-11.2287
')	-11.2288
禁止	-11.2288
ぐれ	-11.2288
と存じます	-11.2289
固有	-11.229
そのことを	-11.229
戻った	-11.229
息が	-11.2291
作戦	-11.2294
見かけ	-11.2295
皆な	-11.2296
線路	-11.2299
シイ	-11.2299
淋し	-11.23
出來ない	-11.23
ver	-11.23
棄て	-11.23
聞けば	-11.2301
一回	-11.2303
たずねて	-11.2303
欲望	-11.2305
▁あなたの	-11.2306
問う	-11.2307
働いている	-11.2308
ヤー	-11.2309
這	-11.231
の下を	-11.2313
床の間	-11.2313
でありながら	-11.2317
ふしぎな	-11.2319
来たのは	-11.2322
ジャー	-11.2323
預け	-11.2324
and	-11.2326
わた	-11.2327
びっくりした	-11.2327
一言も	-11.2331
まわる	-11.2331
を要する	-11.2332
同意	-11.2332
航海	-11.2333
このように	-11.2333
あるべき	-11.2334
市中	-11.2335
抜いた	-11.2335
選手権	-11.2336
溶け	-11.2336
いるんだ	-11.2336
織田	-11.2337
ペル	-11.2337
らなければ	-11.2339
そのあと	-11.234
まらない	-11.2341
こっちの	-11.2343
じる	-11.2346
!)	-11.2347
帽子を	-11.2348
ということも	-11.235
危い	-11.235
機構	-11.235
怨み	-11.2351
は急に	-11.2352
挨拶を	-11.2352
に乗り	-11.2352
坂の	-11.2353
九日	-11.2353
家臣	-11.2354
伜	-11.2356
雌	-11.2356
小林君	-11.2358
なぜか	-11.2359
正直な	-11.236
ヴァン	-11.2361
の態度	-11.2365
すぐれた	-11.2367
牙	-11.2367
ることに	-11.2369
屋が	-11.237
そのころ	-11.2372
辺の	-11.2372
やしません	-11.2373
来てくれ	-11.2373
台湾	-11.2374
という点	-11.2374
参った	-11.2375
将校	-11.2375
坂を	-11.2376
軍事	-11.2377
したという	-11.2379
公の	-11.238
意味が	-11.238
濟	-11.2381
マイル	-11.2384
心持で	-11.2384
眺めた	-11.2386
けい	-11.2388
事実である	-11.2388
出来ません	-11.2388
裸体	-11.2389
吾々の	-11.239
させられた	-11.2391
したため	-11.2392
払う	-11.2393
無礼	-11.2394
▁おそらく	-11.2394
実を	-11.2397
編輯	-11.2397
等が	-11.2398
だけど	-11.2398
2001	-11.2399
御主人	-11.2399
スラ	-11.24
の状態	-11.2401
笑つて	-11.2403
鳴き	-11.2404
90	-11.2407
殴	-11.2408
可き	-11.2408
認めて	-11.2408
市内	-11.241
一同は	-11.241
お前たち	-11.2412
何で	-11.2412
正面	-11.2413
頼朝	-11.2414
肚	-11.2415
の声は	-11.2417
ルス	-11.2417
やって来て	-11.2418
えている	-11.242
どもは	-11.2421
ことができ	-11.2426
伍	-11.2427
言っている	-11.2427
菩薩	-11.2427
シヤ	-11.2427
おろして	-11.2427
戻る	-11.2428
主義の	-11.2428
考えられ	-11.2429
言われ	-11.243
▁全く	-11.2432
はじめました	-11.2432
編成	-11.2433
さすがの	-11.2433
年寄	-11.2437
いっ	-11.2438
の相違	-11.2438
明らか	-11.2439
嚴	-11.2439
▁result	-11.2439
くって	-11.244
っしゃ	-11.2441
わたしに	-11.2441
二十三	-11.2442
くび	-11.2442
愁	-11.2444
行っている	-11.2446
移り	-11.2447
はしないか	-11.2447
出そうと	-11.2448
士官	-11.2448
官吏	-11.2449
諏訪	-11.2451
フォー	-11.2453
閉め	-11.2453
憎悪	-11.2454
良く	-11.2455
はれる	-11.2456
必要はない	-11.2458
解き	-11.2458
楠	-11.2458
だめだ	-11.2459
を帯びて	-11.2459
大声で	-11.246
遅い	-11.2462
いっぱいに	-11.2462
酔って	-11.2463
統制	-11.2463
日本橋	-11.2463
を撫で	-11.2463
肯定	-11.2464
性と	-11.2464
を指す	-11.2465
▁その中に	-11.2466
比べ	-11.2467
きゃ	-11.2467
眺めて	-11.2468
町で	-11.2468
あらん	-11.2469
の隅に	-11.247
集めて	-11.247
を有つ	-11.2473
漏	-11.2474
いるのに	-11.2474
蝉	-11.2474
偉	-11.2476
かせた	-11.2476
デザイン	-11.248
来たのだ	-11.2481
巧みに	-11.2482
重大	-11.2483
入院	-11.2484
合っている	-11.2486
を見せた	-11.2487
':	-11.2488
合併	-11.2489
佐々木	-11.249
様のお	-11.2491
あること	-11.2492
▁人間の	-11.2493
孤	-11.2493
思想の	-11.2493
に至り	-11.2494
おれも	-11.2495
▁12	-11.2496
燒	-11.2497
ことはありません	-11.2499
者には	-11.2499
▁現在	-11.25
が好い	-11.2501
いけねえ	-11.2502
吐き	-11.2503
せねばならぬ	-11.2504
粟	-11.2504
衣を	-11.2504
した後	-11.2505
翌朝	-11.2506
▁むしろ	-11.2509
認	-11.2509
▁他の	-11.251
家々	-11.2512
嘲笑	-11.2514
手伝い	-11.2515
ガリ	-11.2515
寒く	-11.2517
フル	-11.2517
そのものの	-11.252
文献	-11.252
ませた	-11.2521
国境	-11.2521
初めは	-11.2523
時間の	-11.2523
茫	-11.2524
会員	-11.2524
まいか	-11.2525
ものなり	-11.2525
と二人で	-11.2526
長者	-11.2526
行政	-11.2527
2002	-11.2529
お爺さん	-11.2529
向上	-11.2529
たりして	-11.253
三時	-11.253
次いで	-11.2532
どんなこと	-11.2533
に着いた	-11.2534
足らず	-11.2535
繰	-11.2535
お出	-11.2536
すじ	-11.2536
を並べて	-11.2537
の性格	-11.2537
解け	-11.2538
わなかった	-11.2538
結晶	-11.254
卸	-11.254
おぼえ	-11.254
へ移	-11.2541
手伝	-11.2541
当惑	-11.2542
立派	-11.2542
夕食	-11.2542
家と	-11.2544
手紙が	-11.2544
定めて	-11.2544
の手で	-11.2546
例外	-11.2547
張って	-11.2547
▁或る	-11.2548
客観	-11.2548
憲	-11.2551
そり	-11.2551
春日	-11.2551
化け	-11.2556
不便	-11.2556
ゼン	-11.2557
▁Y	-11.2558
ってしまいました	-11.2558
▁self	-11.2561
たいと思う	-11.2562
枝を	-11.2562
思いました	-11.2563
を守る	-11.2564
しちゃ	-11.2565
店で	-11.2566
その時の	-11.2566
彼らが	-11.2568
ことが出来た	-11.2568
腰の	-11.2568
汚い	-11.2571
ショー	-11.2572
赴	-11.2573
へ出る	-11.2573
したりする	-11.2575
道中	-11.2576
檜	-11.2576
橘	-11.2576
いちいち	-11.2577
往き	-11.2578
凡ての	-11.258
遁	-11.2581
身体が	-11.2581
むし	-11.2581
實際	-11.2581
をあけて	-11.2583
ちゃんの	-11.2585
みせた	-11.2587
昨夜の	-11.2587
廊下の	-11.2589
感情の	-11.2589
到着	-11.2589
▁一月	-11.259
不愉快	-11.2591
というのだ	-11.2591
種々な	-11.2593
ような気	-11.2593
云いました	-11.2596
面会	-11.2596
三枚	-11.2597
▁見ると	-11.2598
吹く	-11.2598
太は	-11.2598
いっている	-11.2599
窓の外	-11.26
魚を	-11.26
戸棚	-11.2601
工藝	-11.2601
屋さん	-11.2601
はかなり	-11.2603
関西	-11.2603
エイ	-11.2603
その男	-11.2604
片手に	-11.2604
なくてはならぬ	-11.2604
残らず	-11.2604
各自	-11.2605
辱	-11.2605
1.	-11.2607
こっそり	-11.2609
入学	-11.2609
後ろから	-11.2611
オオ	-11.2611
殺され	-11.2611
ばかりであった	-11.2612
假	-11.2612
mm	-11.2613
座に	-11.2618
でもいい	-11.2618
一筋	-11.2618
出来なかった	-11.2619
どれだけ	-11.262
其れ	-11.2621
考え方	-11.2623
学園	-11.2623
笑ふ	-11.2624
宮廷	-11.2625
化して	-11.2627
土曜	-11.2628
一生懸命に	-11.2628
と思われた	-11.2628
脅	-11.2628
耐	-11.2629
ニコ	-11.2629
ないのか	-11.263
青年が	-11.263
励	-11.2631
悪人	-11.2633
でございますから	-11.2634
三河	-11.2635
石段	-11.2636
の説明	-11.2636
○○	-11.2638
お供	-11.2639
危機	-11.2639
os	-11.264
あわせて	-11.2641
をさして	-11.2642
往く	-11.2643
詳細	-11.2644
若い者	-11.2648
素晴らしい	-11.2648
白髪	-11.2649
促	-11.265
天皇の	-11.2651
少年が	-11.2651
甲州	-11.2652
▁Re	-11.2652
幸いに	-11.2653
ばかりです	-11.2655
▁4,	-11.2657
色々な	-11.2657
ab	-11.266
いやいや	-11.266
かと思って	-11.266
フレ	-11.266
巷	-11.266
資本主義	-11.2661
チベット	-11.2661
韓	-11.2661
にたいして	-11.2662
にさえ	-11.2662
改め	-11.2662
偉大な	-11.2664
昭	-11.2664
残した	-11.2665
一通り	-11.2666
いるのを	-11.2666
七郎	-11.2667
捉え	-11.2667
と申して	-11.2669
事実は	-11.2669
囚	-11.267
CD	-11.2671
多勢	-11.2672
想像する	-11.2672
よろし	-11.2672
欧州	-11.2674
なれない	-11.2674
言うこと	-11.2674
を通る	-11.2674
を打った	-11.2675
gr	-11.2676
ぐっと	-11.2677
父上	-11.268
まさしく	-11.268
日曜日	-11.2681
傑作	-11.2681
腕に	-11.2682
かえった	-11.2682
そよ	-11.2682
取れ	-11.2682
命じた	-11.2683
下げて	-11.2683
遅れ	-11.2683
▁二月	-11.2684
部門	-11.2686
を入れ	-11.2687
盡	-11.2688
会う	-11.2688
謙	-11.2689
外交	-11.269
sort	-11.2691
ネス	-11.2692
one	-11.2692
近づいた	-11.2692
行ける	-11.2692
を変えて	-11.2694
一郎は	-11.2694
MA	-11.2697
しば	-11.27
百五十	-11.27
不良	-11.27
たのだ	-11.2701
眼も	-11.2702
▁クリストフは	-11.2703
月日	-11.2705
をうけ	-11.2706
森林	-11.2708
下りた	-11.2709
かうした	-11.271
薄く	-11.2711
較べ	-11.2711
美味	-11.2712
を描いて	-11.2712
さまざまな	-11.2714
つて行く	-11.2714
枝は	-11.2715
日まで	-11.2715
かくして	-11.2715
プロレタリア	-11.2716
と雖も	-11.2717
一万	-11.2717
可哀そう	-11.2718
らなければならない	-11.272
犬は	-11.2721
おとうさん	-11.2722
num	-11.2723
天に	-11.2725
下され	-11.2727
やア	-11.2728
ヴァー	-11.273
一部の	-11.2732
日本で	-11.2732
んでせう	-11.2733
鍬	-11.2733
嫌ひ	-11.2737
らしめ	-11.2739
知人	-11.2739
みせる	-11.274
下る	-11.2742
中尉	-11.2743
感じて	-11.2748
に参加	-11.2748
城を	-11.2751
饒舌	-11.2752
ばっかり	-11.2752
お嬢様	-11.2752
▁そしてこの	-11.2752
だろうと思う	-11.2753
が言った	-11.2753
していること	-11.2754
遊ば	-11.2754
られると	-11.2754
私の家	-11.2754
テレ	-11.2755
を切って	-11.2757
の下の	-11.2759
▁11	-11.276
なんだよ	-11.276
失敬	-11.2761
待った	-11.2762
兄貴	-11.2763
技師	-11.2764
お父さんは	-11.2765
はずである	-11.2768
パス	-11.2769
おもい	-11.277
歩き出した	-11.277
個人の	-11.2771
ありし	-11.2771
藝	-11.2771
出て行く	-11.2772
リュー	-11.2772
池田	-11.2773
るものは	-11.2773
患	-11.2773
会釈	-11.2773
便利	-11.2776
へ出	-11.2777
▁晴	-11.2778
なくなりました	-11.2778
してくる	-11.2779
吟味	-11.2781
行きたい	-11.2783
進化	-11.2786
夢にも	-11.2786
岐	-11.2787
俺に	-11.2788
味は	-11.2788
楯	-11.2789
灯が	-11.2789
佐渡	-11.279
悩ま	-11.2792
十銭	-11.2794
テイ	-11.2794
豫	-11.2794
現れる	-11.2794
神は	-11.2794
牽	-11.2795
アニメ	-11.2795
競馬	-11.2796
正成	-11.2798
▁len	-11.2798
んだからね	-11.2799
ところである	-11.2801
かえて	-11.2802
肴	-11.2805
も何も	-11.2806
作品を	-11.2806
寐	-11.2807
其時	-11.2807
ことができない	-11.2807
の手から	-11.2809
魂を	-11.2809
ことはなかった	-11.2809
になること	-11.2812
濠	-11.2813
意見を	-11.2814
だといふ	-11.2814
中将	-11.2817
帰ると	-11.2818
脚を	-11.2818
縁談	-11.2818
アレ	-11.2822
俯	-11.2823
っとり	-11.2824
▁その夜	-11.2826
をとった	-11.2827
▁間もなく	-11.2827
その日の	-11.2828
キリ	-11.2828
きん	-11.283
傍ら	-11.283
ちがった	-11.283
帰国	-11.2831
▁否	-11.2834
人であった	-11.2834
)4	-11.2835
跫音	-11.2836
騒が	-11.2838
メー	-11.2839
空気が	-11.2839
外れ	-11.2842
のぼり	-11.2842
して見ると	-11.2843
まわ	-11.2843
ハツ	-11.2846
食わ	-11.2849
茎	-11.285
高原	-11.285
よせて	-11.2852
のかげ	-11.2853
▁ぼくは	-11.2854
を迎え	-11.2855
▁作詞	-11.2856
癪	-11.2856
哲學	-11.2857
返った	-11.2857
りん	-11.2858
新聞記者	-11.2858
ケル	-11.2858
函	-11.2861
居ました	-11.2861
水道	-11.2861
先き	-11.2863
山崎	-11.2864
方法を	-11.2864
ノン	-11.2864
パイ	-11.2865
いづれ	-11.2866
処理	-11.2866
居士	-11.2867
何度	-11.2868
寅	-11.2869
のとおり	-11.287
の好い	-11.2871
ゆら	-11.2872
捻	-11.2873
地へ	-11.2874
謹	-11.2875
菌	-11.2875
騒動	-11.2877
升	-11.2878
茅	-11.2881
答えました	-11.2882
▁十一月	-11.2883
阪	-11.2885
沈み	-11.2886
奇蹟	-11.2888
偶	-11.2888
たりし	-11.2889
幾ら	-11.2889
坐っていた	-11.2891
きみは	-11.2892
")	-11.2892
少佐	-11.2892
穢	-11.2893
であっても	-11.2894
説教	-11.2894
筋の	-11.2894
長さ	-11.2895
隙間	-11.2896
▁平次の	-11.2897
リュ	-11.2897
父親は	-11.2897
短刀	-11.2898
みえ	-11.2898
煙が	-11.2902
各々	-11.2903
経って	-11.2903
藥	-11.2906
彼方	-11.2907
先頭	-11.2908
ty	-11.2909
る所	-11.2909
まわして	-11.291
芸術の	-11.2911
▁それらの	-11.2911
ないという	-11.2912
小田原	-11.2913
お世話	-11.2914
子分	-11.2914
ゐると	-11.2916
俥	-11.2918
知らせて	-11.2918
だしました	-11.2918
褒め	-11.292
空中	-11.292
▁恐らく	-11.2921
加賀	-11.2921
▁いよいよ	-11.2922
云うと	-11.2923
景気	-11.2924
女性の	-11.2924
込んでいる	-11.2924
色々の	-11.2924
さかい	-11.2924
したのです	-11.2924
降って	-11.2926
の高さ	-11.2926
ばかりだった	-11.2927
其他	-11.2927
立つてゐる	-11.2928
▁どうか	-11.2929
特別の	-11.2929
てん	-11.293
あかり	-11.2931
脛	-11.2931
別段	-11.2932
アパート	-11.2933
勝つ	-11.2933
思い切って	-11.2934
千葉	-11.2934
通う	-11.2936
女学校	-11.2939
しておいた	-11.2939
田圃	-11.2939
▁昨夜	-11.2939
の立場	-11.2939
を呼ぶ	-11.294
お雪	-11.294
いられ	-11.2943
晴れた	-11.2943
でなければならぬ	-11.2943
の弟	-11.2944
自在	-11.2946
ならねえ	-11.2946
手当	-11.2946
蓋を	-11.2946
切符	-11.2947
話である	-11.2947
暮らし	-11.2947
語で	-11.2948
本作	-11.2948
近ごろ	-11.2949
の襟	-11.2949
寄せた	-11.2951
ぶらぶら	-11.2951
適当	-11.2951
することができる	-11.2953
姿を見せ	-11.2956
披露	-11.2956
正面に	-11.2957
そう思って	-11.2957
這入つて	-11.2958
落す	-11.2959
鳥が	-11.2959
ったので	-11.296
ようになり	-11.2961
粛	-11.2961
多き	-11.2962
こう云う	-11.2964
de	-11.2965
だけだった	-11.2965
結構な	-11.2967
はないか	-11.2968
緋	-11.2968
を掻き	-11.297
一節	-11.297
......?」	-11.297
ってゆく	-11.2971
丁目	-11.2972
したとき	-11.2972
から出て	-11.2972
座を	-11.2973
明神	-11.2974
巳	-11.2974
思いがけない	-11.2974
武士の	-11.2975
癖に	-11.2976
ちやんと	-11.2976
めり	-11.2977
箱根	-11.2978
反感	-11.2978
而して	-11.2978
撮	-11.2979
林檎	-11.2981
のすがた	-11.2982
相当に	-11.2982
今宵	-11.2984
妾の	-11.2985
拝見	-11.2985
あるものは	-11.2987
あるので	-11.2987
ちらと	-11.2989
姫君	-11.2989
綺麗に	-11.2991
主義者	-11.2992
二三人	-11.2992
恭	-11.2992
樫	-11.2993
ないだろう	-11.2993
かと思われる	-11.2994
未練	-11.2994
買った	-11.2995
田村	-11.2996
のであったが	-11.2996
月夜	-11.2998
ナニ	-11.2999
さば	-11.3001
加えて	-11.3001
真中	-11.3001
煽	-11.3002
狂い	-11.3002
故郷の	-11.3003
まわった	-11.3003
ぴったり	-11.3004
自宅	-11.3004
烈しく	-11.3005
妻子	-11.3005
為めに	-11.3005
膜	-11.3006
岬	-11.3006
モリ	-11.3006
ることも	-11.3006
岡田	-11.3007
ことにして	-11.3011
時代から	-11.3011
気持を	-11.3012
のなかへ	-11.3012
こんな事を	-11.3013
淋しく	-11.3013
の後に	-11.3014
葡萄	-11.3015
着く	-11.3015
肝	-11.3015
を窺	-11.3015
祐	-11.3018
從つて	-11.3019
の巣	-11.3021
先代	-11.3023
状を	-11.3024
ような気持	-11.3024
花は	-11.3025
終に	-11.3026
従つて	-11.3026
冷淡	-11.3026
初めた	-11.3027
わたり	-11.3029
ふくら	-11.3031
発する	-11.3031
コレ	-11.3031
されており	-11.3032
やさしく	-11.3034
その人は	-11.3034
までには	-11.3034
出席	-11.3034
之に	-11.3035
家には	-11.3035
だけれども	-11.3035
急ぐ	-11.3038
毛布	-11.3038
手柄	-11.3039
亡くなった	-11.3039
の奥に	-11.304
尊い	-11.3041
ちょう	-11.3041
響く	-11.3041
相撲	-11.3042
▁今の	-11.3043
之助の	-11.3045
界に	-11.3046
にはいって	-11.3046
育ち	-11.3048
決意	-11.3048
十字	-11.3049
▁it	-11.3049
おそく	-11.305
なのよ	-11.3051
毎朝	-11.3052
set	-11.3052
ベー	-11.3053
のほうで	-11.3054
幸福な	-11.3054
貴公	-11.3056
と思いながら	-11.3059
十四日	-11.3061
笑いを	-11.3061
取つた	-11.3061
この人は	-11.3061
を聞くと	-11.3062
でせうか	-11.3062
そうとする	-11.3062
ist	-11.3063
伯母	-11.3063
すべく	-11.3065
本部	-11.3065
瞬間に	-11.3065
来れば	-11.3068
帯を	-11.307
の顔を見た	-11.3071
坐っている	-11.3071
公卿	-11.3073
翁の	-11.3073
られず	-11.3073
数年	-11.3073
ように思われた	-11.3075
のようなものが	-11.3076
へでも	-11.3076
捨てた	-11.3077
かたち	-11.3077
時代には	-11.3078
の秘密	-11.3079
に関して	-11.308
2010	-11.3081
この日	-11.3081
もやはり	-11.3083
から来る	-11.3083
を持	-11.3085
矢代は	-11.3085
隔て	-11.3085
夜具	-11.3085
などには	-11.3086
思います	-11.3088
しだいに	-11.3093
をやった	-11.3094
誘い	-11.3095
ブー	-11.3095
人間として	-11.3096
▁どうぞ	-11.3097
輝く	-11.3097
それについて	-11.3098
パッ	-11.3098
生活は	-11.31
述べて	-11.3102
戦後	-11.3102
此頃	-11.3103
の家で	-11.3103
会長	-11.3103
表情を	-11.3103
ものであります	-11.3104
つきました	-11.3106
▁きっと	-11.3107
適当な	-11.3108
に於ても	-11.3109
田氏	-11.3111
海底	-11.3113
くり返	-11.3114
申しあげ	-11.3115
一代	-11.3115
もどって	-11.3116
▁w	-11.3116
アフリカ	-11.3119
慌てて	-11.312
斯んな	-11.312
ひね	-11.3121
の影が	-11.3122
気をつけて	-11.3125
富岡	-11.3127
この国	-11.3127
数字	-11.3128
何うも	-11.3129
いゝえ	-11.3129
がついた	-11.3131
ノート	-11.3132
あたりを	-11.3133
言わない	-11.3135
宣言	-11.3136
その顔	-11.3136
ましたので	-11.3136
まっていた	-11.3138
夕暮	-11.3139
たより	-11.3139
めん	-11.3139
こゝで	-11.314
▁処が	-11.314
▁今度は	-11.3141
やん	-11.3143
を浴び	-11.3144
隠す	-11.3144
らかに	-11.3144
、「――	-11.3145
を愛し	-11.3145
つかって	-11.3145
しまいには	-11.3146
と考え	-11.3148
さうである	-11.3149
わたしを	-11.315
しばし	-11.315
売れ	-11.315
▁いつ	-11.315
斧	-11.3151
煉瓦	-11.3151
草原	-11.3151
お礼	-11.3152
木曜	-11.3152
男女の	-11.3153
極く	-11.3155
掩	-11.3157
詩集	-11.3158
ay	-11.3159
▁十二月	-11.316
あてて	-11.3162
向く	-11.3165
使って	-11.3166
三浦	-11.3167
点を	-11.3167
傍の	-11.3167
チュ	-11.317
今頃	-11.3171
とんでもない	-11.3171
当初	-11.3175
出張	-11.3176
執拗	-11.3177
にこにこ	-11.3177
需要	-11.3177
十七日	-11.3177
デイ	-11.3177
ふうに	-11.3178
ヤン	-11.318
明日の	-11.318
頂き	-11.3181
脇差	-11.3182
一方に	-11.3182
通俗	-11.3182
out	-11.3183
ヰ	-11.3183
を射	-11.3184
帰りに	-11.3185
将軍家	-11.3185
ッコ	-11.3186
汽車の	-11.3186
女郎	-11.3187
のうえ	-11.3188
にかけ	-11.3189
望んで	-11.3191
どこまで	-11.3191
バッ	-11.3192
▁今日の	-11.3192
もありました	-11.3193
歩け	-11.3193
輝いて	-11.3194
帆村	-11.3196
俄かに	-11.3196
しまえば	-11.3196
くち	-11.3199
でございますが	-11.3199
河童	-11.3199
そうだが	-11.32
ただちに	-11.32
党の	-11.3202
前方	-11.3206
机の上に	-11.3208
取引	-11.3208
ヱ	-11.3208
冷たく	-11.3208
デビュー	-11.3209
かと思った	-11.3209
いつしか	-11.321
忘	-11.3211
貰いたい	-11.3211
いるように	-11.3212
兵を	-11.3213
見方	-11.3214
異常な	-11.3214
軟	-11.3214
いるらしい	-11.3215
出かけ	-11.3215
女房は	-11.3216
夢に	-11.3217
揃って	-11.3218
半七	-11.322
時分に	-11.3221
休息	-11.3224
中野	-11.3224
蔽	-11.3224
次郎の	-11.3225
55	-11.3225
微妙な	-11.3225
こない	-11.3226
を示して	-11.3226
伐	-11.3226
▁何を	-11.3228
不断	-11.3228
淫	-11.323
まいりました	-11.3231
気をつけ	-11.3232
貴方は	-11.3233
ぐるぐる	-11.3235
がないので	-11.3235
死者	-11.3238
わかれ	-11.3238
百人	-11.3239
ファイ	-11.3241
ただ一つ	-11.3241
あれから	-11.3244
へはいって	-11.3245
せえ	-11.3245
でもなかった	-11.3246
フロ	-11.3247
葺	-11.3247
ナイフ	-11.3247
はすっかり	-11.3247
頑	-11.3248
思われて	-11.3248
参詣	-11.3254
つな	-11.3255
さらば	-11.3257
重ねて	-11.3257
涼しい	-11.3258
細君は	-11.3258
運命を	-11.3259
きちんと	-11.326
澄み	-11.326
マリア	-11.3262
2008	-11.3263
すべきもの	-11.3264
百万	-11.3266
この頃は	-11.3267
隊の	-11.3268
その結果	-11.3268
哀れな	-11.3268
を利用して	-11.3269
を愛して	-11.3269
済まない	-11.3269
を用いて	-11.3269
かりし	-11.327
天子	-11.3271
腰かけ	-11.3271
▁同年	-11.3274
をみて	-11.3281
福島	-11.3281
per	-11.3282
を知った	-11.3282
親切に	-11.3283
裂け	-11.3283
増して	-11.3284
便り	-11.3286
お島	-11.3286
集中	-11.3287
歓	-11.3289
lo	-11.3291
小声で	-11.3292
憚	-11.3292
どもが	-11.3292
新聞紙	-11.3293
追加	-11.3293
と云う事	-11.3295
の顔に	-11.3295
おっしゃる	-11.3296
燃	-11.3298
舊	-11.3298
だもの	-11.3299
お高	-11.33
牛の	-11.33
跡を	-11.33
つかぬ	-11.3302
一所に	-11.3307
たまに	-11.3307
鶴子	-11.3308
たえ	-11.3309
連中は	-11.3309
ペー	-11.331
間違ひ	-11.3311
オール	-11.3313
▁のみならず	-11.3313
の方でも	-11.3315
なれども	-11.3317
ふざけ	-11.3318
早や	-11.3319
送つて	-11.3319
と呼んで	-11.332
あなた様	-11.3321
2.	-11.3324
兜	-11.3324
とつぜん	-11.3324
来たら	-11.3325
▁この間	-11.3326
耳を傾け	-11.3326
取られて	-11.3327
芝居の	-11.3328
年まで	-11.3328
びと	-11.3328
韻	-11.3329
あぶ	-11.3329
説き	-11.333
チラ	-11.3331
暴力	-11.3333
を踏んで	-11.3334
会場	-11.3335
うなずいた	-11.3337
欣	-11.3337
all	-11.3338
寄つて	-11.3339
体験	-11.3341
据えて	-11.3342
髷	-11.3342
張る	-11.3342
札を	-11.3343
length	-11.3344
罷	-11.3344
読め	-11.3345
児童	-11.3346
若き	-11.3346
の袖	-11.3346
森の	-11.3346
ニック	-11.3346
聞きました	-11.3348
闘争	-11.3348
自我	-11.3348
んじゃないか	-11.3348
宏	-11.3349
見よ	-11.335
弊	-11.335
約束を	-11.335
云へば	-11.3351
をきいて	-11.3352
真相	-11.3352
コウ	-11.3352
憂鬱	-11.3353
恐るべき	-11.3356
新吉	-11.3356
翳	-11.3357
▁2013	-11.3358
晩年	-11.3358
▁博士は	-11.3358
許して	-11.3359
はははは	-11.3359
花嫁	-11.3359
起って	-11.3361
でしたから	-11.3362
あひ	-11.3364
始まり	-11.3366
ザン	-11.3366
態度で	-11.3367
同行	-11.3368
乏しい	-11.3369
把握	-11.337
あの娘	-11.3371
近藤	-11.3372
罪人	-11.3373
ess	-11.3373
は極めて	-11.3374
黨	-11.3375
るとき	-11.3377
当局	-11.3378
処分	-11.3379
帰って来て	-11.3379
をつくる	-11.338
▁更に	-11.3381
すこしも	-11.3382
榮	-11.3383
がれた	-11.3383
の間の	-11.3384
おもしろ	-11.3388
ハル	-11.3389
畏	-11.339
南北	-11.339
表示	-11.339
の名は	-11.3391
二三度	-11.3396
人間と	-11.3396
濃く	-11.3397
明白	-11.3397
違って	-11.3398
今までの	-11.3401
可笑しい	-11.3402
畢竟	-11.3402
乗せて	-11.3402
わび	-11.3403
めったに	-11.3403
戯れ	-11.3404
頂上	-11.3406
▁かかる	-11.3406
を持た	-11.3407
子さんは	-11.3407
膝に	-11.3408
屡々	-11.341
イエ	-11.341
背中に	-11.3411
私の方	-11.3413
挿	-11.3414
食った	-11.3414
フリー	-11.3415
せしめた	-11.3416
ところでは	-11.3416
▁ここは	-11.3417
運営	-11.3418
七つ	-11.3418
車が	-11.342
▁どうせ	-11.3421
その時は	-11.3421
奴等	-11.3421
名物	-11.3421
中にも	-11.3422
ぽん	-11.3423
の心は	-11.3424
事故	-11.3426
ようなこと	-11.3426
誕生	-11.3428
水夫	-11.3429
もねえ	-11.3429
ちよ	-11.343
消滅	-11.343
理屈	-11.3431
利害	-11.3433
わたくしが	-11.3434
別れる	-11.3434
知られ	-11.3435
がなければ	-11.3435
ダル	-11.3435
義経	-11.3435
欠点	-11.3436
主君	-11.3436
杖を	-11.3437
られません	-11.344
神を	-11.344
学校に	-11.3443
やってきた	-11.3443
顧み	-11.3443
出て来	-11.3443
うれし	-11.3444
広間	-11.3446
気になった	-11.3446
這入る	-11.3446
てしまって	-11.3446
されていない	-11.3447
▁2014	-11.3448
大急ぎで	-11.3449
手間	-11.3449
▁わたしの	-11.3449
届	-11.3449
思い出した	-11.345
見てゐる	-11.3451
すべてを	-11.3451
一貫	-11.3451
▁いつか	-11.3451
曲線	-11.3452
世界を	-11.3453
バタ	-11.3453
▁人々は	-11.3454
ことになりました	-11.3455
アップ	-11.3456
日本人は	-11.3456
プル	-11.3457
すわって	-11.3457
軍艦	-11.3459
▁但し	-11.3459
前途	-11.346
似て	-11.3461
▁やはり	-11.3461
端に	-11.3461
姪	-11.3461
ナポレオン	-11.3461
莫迦	-11.3461
親切な	-11.3462
接近	-11.3462
点は	-11.3463
買う	-11.3464
詩を	-11.3464
アイヌ	-11.3465
と聞いた	-11.3465
こわい	-11.3466
後へ	-11.3466
廓	-11.3466
作られた	-11.3467
ものであるが	-11.3469
依然として	-11.3471
家老	-11.3472
してしまつた	-11.3472
もなしに	-11.3473
胎	-11.3474
内側	-11.3474
さっさと	-11.3474
ぶれ	-11.3474
十九日	-11.3475
遊戯	-11.3475
支払	-11.3476
そうとした	-11.3478
なつてゐる	-11.3481
帳場	-11.3482
徳利	-11.3485
日の光	-11.3486
定義	-11.3487
起つた	-11.3488
何んの	-11.3489
かすかな	-11.3489
になっていて	-11.3489
やろ	-11.349
三田	-11.3491
右衞門	-11.3494
土佐	-11.3495
レル	-11.3496
そうもない	-11.3496
月光	-11.3497
拔	-11.3497
ニュ	-11.3497
上方	-11.3498
?......	-11.35
到頭	-11.35
把	-11.35
自分には	-11.3501
の力で	-11.3501
呼ばれて	-11.3501
暗闇	-11.3502
ほめ	-11.3506
臼	-11.3507
を襲	-11.3509
消える	-11.3511
国語	-11.3511
窟	-11.3512
イベント	-11.3514
を立てた	-11.3514
等を	-11.3515
旅客	-11.3516
指先	-11.3518
国へ	-11.3519
を歩いて	-11.352
NHK	-11.352
我を	-11.3523
野心	-11.3523
無き	-11.3524
遥かに	-11.3525
磁	-11.3526
擲	-11.3527
何分	-11.3529
つとめ	-11.3529
覗く	-11.353
わしく	-11.3532
総て	-11.3532
あの子	-11.3532
テラ	-11.3533
ことなら	-11.3536
封建	-11.3536
縞	-11.3537
事はない	-11.3537
というようなこと	-11.3538
あえて	-11.3538
タラ	-11.354
妄	-11.354
ゐるのだ	-11.354
あま	-11.354
しなかつた	-11.354
優しく	-11.3541
あなたのお	-11.3541
▁それでは	-11.3542
なくって	-11.3542
お気の毒	-11.3542
溢れ	-11.3542
to	-11.3543
溶	-11.3543
▁2010	-11.3544
お菊	-11.3544
組んで	-11.3544
説いて	-11.3545
のかもしれない	-11.3545
あれで	-11.3545
と言ひ	-11.3545
買物	-11.3545
つて来た	-11.3546
続ける	-11.3547
ポケット	-11.3547
のあること	-11.3549
怒る	-11.3549
生死	-11.3549
ないことを	-11.355
オス	-11.355
単純	-11.3551
応用	-11.3551
浮いて	-11.3552
殺されて	-11.3553
初期	-11.3553
▁j	-11.3554
そちら	-11.3557
▁そのため	-11.3557
2013	-11.3557
来た時	-11.3559
世帯	-11.3561
AN	-11.3561
秘密を	-11.3561
招き	-11.3562
となっていた	-11.3563
と呼び	-11.3566
ればいい	-11.3566
客間	-11.3566
陛下	-11.3567
はもとより	-11.3567
面白くない	-11.3569
いただき	-11.3569
そのうえ	-11.3571
の生活を	-11.3571
を入れる	-11.3573
動いた	-11.3574
hi	-11.3575
夜中に	-11.3577
れなかった	-11.3577
ぶち	-11.3579
帰宅	-11.3579
いくつも	-11.358
あたしの	-11.358
使命	-11.358
我に	-11.3582
訊く	-11.3582
トウ	-11.3582
を持つた	-11.3584
もしや	-11.3584
朝夕	-11.3584
他人に	-11.3584
よっぽど	-11.3587
すまして	-11.3588
業を	-11.3588
切つた	-11.3589
▁or	-11.3591
ということになる	-11.3591
▁そうすると	-11.3591
が好き	-11.3591
松平	-11.3592
兄が	-11.3593
岸本	-11.3595
提	-11.3595
注射	-11.3596
緊	-11.3598
眠れ	-11.3598
許可	-11.3599
茶店	-11.3599
得なかった	-11.3602
流石に	-11.3603
死刑	-11.3604
気象	-11.3604
苦悶	-11.3607
アク	-11.3609
憎い	-11.3609
▁老人は	-11.3611
って来て	-11.3613
陶器	-11.3614
つてゐて	-11.3614
たった一人	-11.3615
ヤマ	-11.3616
平凡	-11.3616
思召	-11.3618
くなりました	-11.3618
不意	-11.3619
足音が	-11.3619
ブレ	-11.3619
舷	-11.362
に浸	-11.362
みたり	-11.3623
所在	-11.3623
悲哀	-11.3624
捜	-11.3624
二つ三つ	-11.3624
たくなる	-11.3625
ないほど	-11.3625
は別に	-11.3626
32	-11.3626
思惟	-11.3627
仮定	-11.3629
放し	-11.3629
数え	-11.3629
ドイツの	-11.363
御覧なさい	-11.363
片づけ	-11.363
することも	-11.363
あたしが	-11.3631
やっていた	-11.3633
内から	-11.3633
クー	-11.3633
逢った	-11.3633
累	-11.3633
出さない	-11.3635
されると	-11.3635
酒は	-11.3637
八百	-11.3637
しているうちに	-11.3638
これでも	-11.3639
勅	-11.3639
つけられ	-11.3639
診察	-11.364
....	-11.3641
望む	-11.3642
巨人	-11.3643
大戦	-11.3645
起して	-11.3646
の扉	-11.3647
蕎麦	-11.3647
ものもある	-11.3647
お客様	-11.3648
十数	-11.3649
祝い	-11.3649
ろく	-11.3649
少女の	-11.3649
が起る	-11.3649
数十	-11.365
後ろに	-11.3652
さけ	-11.3653
著書	-11.3653
昂奮	-11.3653
夜明け	-11.3654
んだぜ	-11.3655
方面に	-11.3655
殺害	-11.3655
無限の	-11.3657
駈	-11.3658
看護	-11.366
安定	-11.3662
▁その代り	-11.3663
東京で	-11.3664
恐しい	-11.3664
笑い声	-11.3665
問題である	-11.3665
▁||	-11.3666
を加えて	-11.3668
くださる	-11.3669
娘に	-11.3673
納得	-11.3674
やうである	-11.3674
きりで	-11.3675
伸子の	-11.3675
きくと	-11.3677
説明した	-11.3678
ではあったが	-11.3679
見ゆる	-11.3679
火星	-11.3679
東京都	-11.3683
叶	-11.3683
があっても	-11.3685
そりや	-11.3686
沈んだ	-11.3686
ig	-11.3686
丸い	-11.3687
されたもの	-11.3688
いよう	-11.369
かというと	-11.369
おまけに	-11.3691
米の	-11.3691
源氏は	-11.3691
2007	-11.3691
両手	-11.3692
空襲	-11.3693
を与へ	-11.3696
安心した	-11.3696
彼れ	-11.3698
一条	-11.3699
カ月	-11.37
ぱっと	-11.37
ずり	-11.3701
咲いて	-11.3704
を買う	-11.3705
宿命	-11.3705
強さ	-11.3706
蝋	-11.3706
圭	-11.3707
だけです	-11.3708
へ入る	-11.3709
一家の	-11.371
活き	-11.3711
小松	-11.3711
よろこんで	-11.3714
お母様	-11.3714
の差	-11.3715
バリ	-11.3716
▁或は	-11.3716
以来の	-11.3716
遠方	-11.3716
その日は	-11.3717
写し	-11.3717
して居ります	-11.3718
を見ている	-11.3719
だけであった	-11.372
跳び	-11.3722
がなくて	-11.3723
十六日	-11.3725
二分	-11.3725
許し	-11.3726
▁max	-11.3727
堺	-11.3727
▁この頃	-11.3731
買ひ	-11.3731
くれと	-11.3732
蒔	-11.3733
后	-11.3733
征服	-11.3733
個の	-11.3734
腹に	-11.3734
延長	-11.3734
母親が	-11.3734
本堂	-11.3736
改正	-11.3739
糸を	-11.374
ゴム	-11.374
薩摩	-11.374
仄	-11.3741
妻を	-11.3741
お君	-11.3746
があるのだ	-11.3746
戦で	-11.3747
わかっている	-11.3748
かくし	-11.3748
国家の	-11.3749
やって来る	-11.3751
自分だけ	-11.3752
著作	-11.3752
肺	-11.3752
苦しさ	-11.3753
信濃	-11.3757
ようとしている	-11.3757
▁St	-11.3758
大阪の	-11.3759
寺へ	-11.376
▁y	-11.3761
通用	-11.3762
登場する	-11.3763
外へ出て	-11.3764
世にも	-11.3764
座敷へ	-11.3765
海外	-11.3765
遺言	-11.3766
▁私はその	-11.3766
おろし	-11.3767
まぬ	-11.3767
さげ	-11.3768
號	-11.3768
たいへんな	-11.3768
教員	-11.3769
お光	-11.377
あたら	-11.377
四角	-11.377
の景色	-11.3771
に至って	-11.3772
御所	-11.3776
苦悩	-11.3776
傾	-11.3776
十一日	-11.3776
2011	-11.3777
署長	-11.3777
さんざん	-11.3777
了う	-11.3778
当り前	-11.3778
来なかった	-11.3779
りたい	-11.378
家庭の	-11.378
デュ	-11.378
蒲	-11.378
御苦労	-11.378
稚	-11.3781
畔	-11.3781
▁following	-11.3781
我国	-11.3782
かねえ	-11.3783
何事か	-11.3784
ぐり	-11.3785
ロマン	-11.3786
成功した	-11.3788
に行つた	-11.3789
連中が	-11.379
之れ	-11.3791
しるし	-11.3791
終日	-11.3791
新宿	-11.3792
▁夕方	-11.3793
は無論	-11.3793
そっち	-11.3793
弁解	-11.3794
委	-11.3795
夫婦の	-11.3795
学部	-11.3799
連載	-11.3799
山から	-11.3801
遣る	-11.3803
疑ひ	-11.3803
單に	-11.3804
書いたもの	-11.3805
神さま	-11.3806
トム	-11.3807
亮	-11.3808
卜	-11.3808
ia	-11.3809
いっさい	-11.3809
幾度か	-11.381
とうてい	-11.3811
▁その晩	-11.3811
晩に	-11.3812
人夫	-11.3812
まはり	-11.3814
リオ	-11.3816
カス	-11.3816
を描いた	-11.3818
2020	-11.3819
許す	-11.382
文化的	-11.3821
卑怯	-11.3821
あっち	-11.3822
五人の	-11.3825
落着	-11.3826
▁まさか	-11.3826
捨てる	-11.3827
吾人	-11.3829
▁しかしこの	-11.383
三階	-11.383
手代	-11.383
哲学者	-11.383
▁2016	-11.3831
停止	-11.3832
紅い	-11.3833
院長	-11.3835
分らなかった	-11.3836
頭の上	-11.3837
手紙の	-11.3838
婦人は	-11.3838
に達した	-11.384
ニング	-11.384
ガラツ八	-11.384
より外に	-11.3841
協	-11.3842
おほ	-11.3842
うべき	-11.3843
台に	-11.3846
見解	-11.3847
おいでになる	-11.3848
つかれ	-11.385
節子	-11.385
お茶を	-11.3851
吉川	-11.3851
好きで	-11.3853
一三	-11.3855
イズ	-11.3855
葦	-11.3856
ギャ	-11.3856
兵庫	-11.3856
The	-11.3857
楽器	-11.3858
びき	-11.3858
まわし	-11.3859
来たのである	-11.386
尊重	-11.3861
ンド	-11.3861
ジャーナリズム	-11.3863
と云うもの	-11.3864
歩いて行く	-11.3864
領主	-11.3864
金魚	-11.3865
側から	-11.3865
と思えば	-11.3866
頷いた	-11.3867
譜	-11.3867
全体が	-11.3868
石炭	-11.3869
主任	-11.3871
傾斜	-11.3872
考えられる	-11.3874
の境	-11.3874
あのとき	-11.3874
au	-11.3874
勤労	-11.3877
歌舞伎	-11.388
この家	-11.3881
祥	-11.3883
書け	-11.3884
紙幣	-11.3885
下って	-11.3885
をしない	-11.3885
作者は	-11.3885
きれいに	-11.3885
七人	-11.3887
跳	-11.3887
それとなく	-11.3888
ったのである	-11.3889
夫れ	-11.389
づつ	-11.3891
氣に	-11.3891
に打ち	-11.3892
以前は	-11.3893
甲府	-11.3893
指で	-11.3895
本所	-11.3896
公平	-11.3896
完	-11.3897
何物	-11.3897
関羽	-11.3897
当日	-11.3898
貰ひ	-11.3899
▁2015	-11.3899
背中を	-11.3899
▁こうした	-11.3901
気分が	-11.3902
自身も	-11.3902
をひいて	-11.3902
四辺	-11.3904
喧	-11.3904
▁class	-11.3904
洗って	-11.3904
酒屋	-11.3905
矢代	-11.3905
帰ら	-11.3906
乗って	-11.3908
マッ	-11.3908
原作	-11.3908
あんたは	-11.3909
AR	-11.3909
ほっと	-11.391
処を	-11.3911
祠	-11.3911
あるか	-11.3911
他方	-11.3912
どけ	-11.3912
なのは	-11.3913
を加へ	-11.3914
を叩き	-11.3916
の下へ	-11.3916
ong	-11.3917
づいた	-11.3917
反動	-11.3917
を描く	-11.3918
良人の	-11.3918
打たれた	-11.3919
貰ふ	-11.3919
人相	-11.392
夢中で	-11.3922
▁もとより	-11.3923
の概念	-11.3923
万葉	-11.3924
夫婦は	-11.3925
▁else	-11.3925
をすると	-11.3925
侵入	-11.3929
IC	-11.3929
ではございません	-11.393
記載	-11.393
久慈	-11.3933
玄関の	-11.3933
一刻	-11.3934
怒った	-11.3937
愚痴	-11.3939
万歳	-11.3939
貸し	-11.394
使ひ	-11.394
雑草	-11.3941
▁17	-11.3941
▁昼	-11.3942
酒場	-11.3943
泣か	-11.3945
したのであった	-11.3945
ひたすら	-11.3946
十二日	-11.3947
どこかの	-11.3947
扉の	-11.3949
それと同時に	-11.395
送る	-11.3953
大家	-11.3954
通じ	-11.3956
思わない	-11.3958
つっ	-11.3958
團	-11.3959
札幌	-11.3959
今日では	-11.3961
へり	-11.3962
十五年	-11.3966
半日	-11.3968
実践	-11.3969
を見つけた	-11.3969
言いながら	-11.397
ツェ	-11.3971
▁なにしろ	-11.3971
し得ない	-11.3973
独身	-11.3973
▁+=	-11.3974
らひ	-11.3975
三好	-11.3977
さう云ふ	-11.3977
ヴィン	-11.3978
スリ	-11.3978
いいんだ	-11.3981
したことは	-11.3982
特別に	-11.3984
ゅ	-11.3985
繁昌	-11.3988
を抑え	-11.3988
芸妓	-11.3988
一尺	-11.3989
こんでいる	-11.399
並んだ	-11.399
の対象	-11.399
そのため	-11.3991
越前	-11.3991
事態	-11.3993
が多かった	-11.3993
我れ	-11.3994
北条	-11.3994
視線を	-11.3994
を失う	-11.3996
を持つてゐる	-11.3996
反対の	-11.3997
▁すでに	-11.3998
照らし	-11.3998
!!	-11.3998
いやに	-11.3998
統計	-11.3999
城内	-11.3999
見られない	-11.4
オランダ	-11.4001
いいながら	-11.4002
申し上げ	-11.4002
にならぬ	-11.4002
あることを	-11.4002
秀吉の	-11.4005
方法で	-11.4006
vers	-11.4006
牧師	-11.4007
対応	-11.4008
JR	-11.4008
窓を	-11.4009
よこした	-11.4009
イワン	-11.4011
覗	-11.4011
嬉しく	-11.4011
敷き	-11.4012
女で	-11.4014
歸つて	-11.4017
かくれ	-11.4017
一大	-11.4018
究	-11.402
首に	-11.4021
動いている	-11.4021
アメリカ合衆国	-11.4022
信ずる	-11.4023
車両	-11.4023
今年は	-11.4024
國民	-11.4024
今晩は	-11.4027
したもので	-11.4027
破り	-11.4028
お玉	-11.4028
を演じ	-11.4028
ちがって	-11.4028
洞窟	-11.4029
予言	-11.4031
屋敷へ	-11.4032
の蔭に	-11.4032
柱に	-11.4032
おもひ	-11.4034
解散	-11.4035
の際	-11.4035
十字架	-11.4035
つかまえ	-11.4036
尾張	-11.4037
の為めに	-11.4038
残された	-11.4038
深き	-11.4038
にも拘らず	-11.404
ベンチ	-11.404
なさいました	-11.4041
痩せた	-11.4041
車に	-11.4042
指図	-11.4042
一向に	-11.4045
心の底	-11.4046
肯	-11.4046
ちらちら	-11.4046
下男	-11.4046
メリ	-11.4048
一個	-11.4048
馬場	-11.4048
の如し	-11.4049
匿	-11.4049
に限る	-11.4051
被告	-11.4051
王国	-11.4053
ようなことを	-11.4054
談話	-11.4054
呆れ	-11.4055
みせ	-11.4055
かぶり	-11.4056
二十一	-11.4057
2006	-11.4059
をやり	-11.406
直後	-11.4061
廊下に	-11.4063
なってしまった	-11.4064
行ってしまった	-11.4065
本来の	-11.4066
十八日	-11.4066
さわぎ	-11.4067
なること	-11.4068
カップ	-11.4069
の運命	-11.407
を捜し	-11.407
消す	-11.407
ぐらいは	-11.4072
男爵	-11.4073
うわさ	-11.4073
チュー	-11.4074
の戦い	-11.4076
の事で	-11.4076
mo	-11.4078
は思った	-11.408
月給	-11.4081
臨時	-11.4081
このとき	-11.4083
だいたい	-11.4083
缺	-11.4084
のうちには	-11.4086
払った	-11.4087
存じます	-11.4087
方向に	-11.4088
それだから	-11.4089
を振	-11.4089
条約	-11.409
ha	-11.409
と違って	-11.4091
大して	-11.4091
あく	-11.4091
させようと	-11.4092
上演	-11.4092
犯人は	-11.4093
栄一は	-11.4094
験	-11.4095
とらえ	-11.4096
機会に	-11.4096
ことになっている	-11.4096
御機嫌	-11.4096
となれば	-11.4098
一刀	-11.41
いわず	-11.4104
朧	-11.4105
飴	-11.4105
ウイ	-11.4105
平等	-11.4105
垣根	-11.4106
容れ	-11.4106
この二つの	-11.4106
od	-11.4107
こえ	-11.4109
推定	-11.411
▁私達は	-11.411
渦巻	-11.411
▁而も	-11.411
飜	-11.4111
睦	-11.4112
の如くに	-11.4113
真珠	-11.4113
政権	-11.4115
地点	-11.4115
self	-11.4116
方式	-11.4116
町から	-11.4116
くそ	-11.4116
▁2017	-11.4117
決め	-11.4117
避難	-11.4117
洪水	-11.4118
宙	-11.4119
道徳的	-11.412
崇拝	-11.412
じろ	-11.4122
ということだ	-11.4122
女房の	-11.4122
たてた	-11.4122
入っていた	-11.4122
梯子	-11.4123
僕ら	-11.4125
▁2009	-11.4125
にかかって	-11.4131
十円	-11.4131
ive	-11.4133
が高く	-11.4134
自由主義	-11.4135
char	-11.4138
鴉	-11.414
といわ	-11.4141
それを見て	-11.4143
暖か	-11.4144
あつし	-11.4145
熊本	-11.4147
踵	-11.4147
はげしく	-11.4148
つて来る	-11.4148
添え	-11.415
思える	-11.415
湧いて	-11.415
浮世	-11.4151
しつつある	-11.4151
7,	-11.4152
抜く	-11.4152
置け	-11.4152
シュー	-11.4153
聯	-11.4154
経済的	-11.4154
少将	-11.4154
▁are	-11.4154
sh	-11.4155
白雲	-11.4156
と思ったが	-11.4156
なんですか	-11.4156
したのが	-11.4158
をうけた	-11.416
唖	-11.4161
童子	-11.4162
さうか	-11.4163
▁|-	-11.4164
ありませんよ	-11.4165
んなら	-11.4166
任せ	-11.4167
葉を	-11.4167
拵へ	-11.4168
形成	-11.4168
言うと	-11.4168
しまわ	-11.4169
してあった	-11.4169
のぼる	-11.4171
のでありました	-11.4172
ばれ	-11.4174
の花が	-11.4174
兆	-11.4175
ゴーリキイ	-11.4175
FC	-11.4176
新劇	-11.4176
サッカー	-11.4177
__	-11.4178
周辺	-11.4178
移転	-11.418
見たり	-11.418
ことだけは	-11.4181
フー	-11.4182
エレ	-11.4183
使用する	-11.4183
なう	-11.4183
論者	-11.4184
はずの	-11.4185
固め	-11.4185
よいか	-11.4185
詣	-11.4187
紛	-11.4188
見事な	-11.4189
何等の	-11.4191
重ね	-11.4191
翁は	-11.4192
でなかった	-11.4192
泳ぎ	-11.4193
人家	-11.4193
学科	-11.4193
模	-11.4194
八つ	-11.4195
出していた	-11.4195
主張する	-11.4196
のまわりに	-11.4198
▁2012	-11.4198
忠告	-11.4199
まこと	-11.4199
自己を	-11.42
こし	-11.42
身体の	-11.4201
ふむ	-11.4201
とんと	-11.4201
していなかった	-11.4201
から見れば	-11.4202
夫に	-11.4202
王さま	-11.4202
発表した	-11.4203
コンクリート	-11.4204
囘	-11.4204
1990	-11.4204
馳せ	-11.4205
そうそう	-11.4205
span	-11.4205
しているので	-11.4206
お酒	-11.4206
ふら	-11.4208
6,	-11.421
聽	-11.4212
ありさま	-11.4213
父子	-11.4213
暑さ	-11.4214
を避け	-11.4214
小田	-11.4216
店へ	-11.4217
頃まで	-11.4217
頤	-11.4218
六畳	-11.4218
置いてある	-11.4218
婦人が	-11.4219
ムク	-11.4221
大へん	-11.4221
小舟	-11.4222
佃	-11.4225
時間に	-11.4226
将棋	-11.4226
ホテルの	-11.4227
コース	-11.4227
カタ	-11.4228
▁次郎は	-11.4229
往々	-11.423
ござんす	-11.423
ひろい	-11.4231
郭	-11.4231
dict	-11.4233
お雪ちゃん	-11.4234
濱	-11.4239
を引く	-11.4241
内外	-11.4244
row	-11.4244
を送り	-11.4244
持たせ	-11.4244
会って	-11.4244
撫	-11.4246
負担	-11.4248
著しい	-11.4249
その時分	-11.4249
黄金の	-11.4249
▁などと	-11.425
と言っても	-11.425
いそいで	-11.4255
混雑	-11.4255
形容	-11.4256
よくよく	-11.4258
の中にある	-11.426
めいめい	-11.426
快く	-11.426
裏に	-11.4261
ないんだ	-11.4262
やうにして	-11.4263
宗教的	-11.4263
のぞいて	-11.4266
と云ふもの	-11.4266
観測	-11.4266
考察	-11.4267
をながめて	-11.4267
細胞	-11.4268
ウィン	-11.4269
満洲	-11.427
道庵	-11.427
に入つて	-11.4271
あし	-11.4273
果たして	-11.4274
そんな風に	-11.4276
一語	-11.4277
囁き	-11.4279
半身	-11.4281
観客	-11.4281
店員	-11.4281
覇	-11.4281
粥	-11.4281
載せ	-11.4282
おどろいた	-11.4282
情を	-11.4283
と思ったら	-11.4284
引く	-11.4285
気になる	-11.4288
ほし	-11.4289
足は	-11.4289
喜んだ	-11.4289
この部屋	-11.4292
それぢや	-11.4292
たりした	-11.4293
変る	-11.4293
合唱	-11.4294
一四	-11.4295
無視	-11.4296
お前さんは	-11.4296
災難	-11.4297
を運んで	-11.4298
刻み	-11.4298
有力な	-11.4299
役を	-11.4299
その代り	-11.4299
の眼は	-11.43
捉	-11.43
忘れていた	-11.4301
毛を	-11.4301
滞	-11.4302
拒	-11.4303
二十歳	-11.4304
こう言って	-11.4305
うごか	-11.4306
敵に	-11.4306
一斉に	-11.4307
▁そうした	-11.4308
異常	-11.4309
つかず	-11.4309
にかかわらず	-11.431
二十面相	-11.431
返答	-11.4312
浮び	-11.4312
金沢	-11.4312
室の中	-11.4312
を失い	-11.4313
分子	-11.4313
雪を	-11.4313
ゆっくりと	-11.4313
抜けた	-11.4314
言わ	-11.4315
確に	-11.4317
が違う	-11.4317
鷺	-11.4317
ひとつの	-11.4317
黄昏	-11.4318
除け	-11.4318
困ります	-11.4319
星が	-11.432
空気を	-11.432
避	-11.432
区域	-11.432
見ず	-11.4321
有効	-11.4322
すてて	-11.4323
のないこと	-11.4324
櫻	-11.4324
馴れた	-11.4325
ックリ	-11.4325
聞かせ	-11.4326
二十二	-11.4326
二十五日	-11.4327
若葉	-11.4327
分りません	-11.4328
或る日	-11.4328
はどうしても	-11.4329
みえる	-11.4331
len	-11.4332
布団	-11.4333
というよりも	-11.4333
▁我々は	-11.4333
しようか	-11.4334
▁たしかに	-11.4334
一六	-11.4335
ラル	-11.4336
公演	-11.4338
マリユス	-11.4339
鉛	-11.4339
ガル	-11.434
の場合は	-11.434
早々	-11.434
民衆の	-11.434
眼を見	-11.434
移って	-11.4341
鳥居	-11.4341
用語	-11.4342
の表情	-11.4342
悠々と	-11.4343
通ずる	-11.4343
都の	-11.4343
天国	-11.4345
赦	-11.4345
硯	-11.4346
了解	-11.4347
川上	-11.4348
火山	-11.4349
のほうから	-11.4349
浅い	-11.4349
宜しい	-11.435
巴	-11.4351
ということで	-11.4352
路に	-11.4352
三輪	-11.4353
被害者	-11.4353
並んでいる	-11.4353
ようになりました	-11.4354
を覚え	-11.4355
置かれて	-11.4355
無心	-11.4355
なかったのだ	-11.4356
の家は	-11.4357
生み	-11.4358
笑っている	-11.436
対手	-11.4363
知恵	-11.4363
草木	-11.4364
危険な	-11.4364
るのであった	-11.4364
憐	-11.4364
タク	-11.4366
今さら	-11.4367
ことだが	-11.4367
実質	-11.4368
新田	-11.4368
母上	-11.4368
曲り	-11.4369
の梢	-11.437
添えて	-11.437
木下	-11.4372
史上	-11.4374
月号	-11.4374
袷	-11.4375
装備	-11.4375
同一の	-11.4375
▁2011	-11.4375
急な	-11.4376
感傷	-11.4378
挑	-11.438
なにしろ	-11.438
暴れ	-11.438
ができた	-11.4381
愈々	-11.4383
我ら	-11.4386
姉は	-11.4387
お粂	-11.4387
程に	-11.4388
憑	-11.4388
聞こえて	-11.4392
佐々	-11.4393
底の	-11.4394
遠ざか	-11.4395
震災	-11.4396
三人で	-11.4396
にむかって	-11.4396
鯛	-11.4396
描	-11.4396
ユウ	-11.4396
伊東	-11.4397
稼ぎ	-11.4397
あらわれ	-11.4397
リリース	-11.4403
一ぺん	-11.4404
何人も	-11.4404
ことが多い	-11.4405
イタ	-11.4406
我儘	-11.4407
おそ	-11.4407
いいだろう	-11.4408
満員	-11.441
#	-11.4411
獨	-11.4411
分の一	-11.4411
火曜	-11.4411
と名づけ	-11.4411
かたまり	-11.4412
ON	-11.4412
一息	-11.4413
の内部	-11.4414
貴方の	-11.4415
かざ	-11.4415
表象	-11.4416
ンズ	-11.4416
全集	-11.4417
多かった	-11.4418
の底から	-11.4419
儀式	-11.4419
タイム	-11.4423
こまれて	-11.4424
出ていた	-11.4424
凹	-11.4425
を離れ	-11.4425
るつもり	-11.4427
出身の	-11.4428
いいよ	-11.4428
フン	-11.4429
方面の	-11.443
を覗き	-11.4431
気づいて	-11.4431
ステージ	-11.4433
したところ	-11.4433
II	-11.4433
に立った	-11.4434
座敷に	-11.4435
グレ	-11.444
っております	-11.444
ったような	-11.4441
は殆ど	-11.4441
気色	-11.4443
ぶつ	-11.4444
介は	-11.4444
を開く	-11.4444
霊魂	-11.4444
ものには	-11.4445
渡った	-11.4445
丹波	-11.4446
二〇	-11.4447
肘	-11.4447
ビア	-11.4448
ma	-11.4448
職工	-11.4448
詳しい	-11.4448
いわ	-11.4449
らしかつた	-11.4449
のなかの	-11.4451
ふけ	-11.4452
類似	-11.4453
に達する	-11.4454
駈けて	-11.4454
義雄	-11.4454
勘次	-11.4454
ポロ	-11.4455
友人の	-11.4456
水曜	-11.4456
お延	-11.4458
あやま	-11.4458
に比べて	-11.4459
されてしまった	-11.4459
後者	-11.4461
の身の上	-11.4463
だらけの	-11.4464
表紙	-11.4465
▁“	-11.4465
忙し	-11.4466
うとした	-11.4467
桜の	-11.4467
お宅	-11.4468
▁そのために	-11.4468
桁	-11.4469
見事に	-11.4469
小倉	-11.4469
の動き	-11.447
達者	-11.4473
ざるを得ない	-11.4474
さむ	-11.4475
貰つた	-11.4475
食って	-11.4475
とは何	-11.4477
言っていた	-11.4477
の様子を	-11.4477
出生	-11.4478
地帯	-11.4481
対照	-11.4481
と云	-11.4481
に限って	-11.4482
作る	-11.4483
るんです	-11.4485
どちらか	-11.4485
らあ	-11.4485
永い	-11.4488
辺り	-11.4488
五千	-11.4488
この世の	-11.449
孟	-11.449
穀	-11.4491
オブ	-11.4492
を起した	-11.4493
あたりから	-11.4493
は全然	-11.4494
沢山の	-11.4494
閉口	-11.4495
第六	-11.4497
推測	-11.4499
起した	-11.4499
珍らしく	-11.45
左へ	-11.45
ナカ	-11.4501
汲	-11.4502
から見ると	-11.4502
というように	-11.4502
傾き	-11.4502
あわせ	-11.4502
のあたりに	-11.4504
だけでなく	-11.4504
地面に	-11.4504
書記	-11.4506
つかみ	-11.4506
出でて	-11.4507
やゝ	-11.4507
へ飛び	-11.4507
に住んで	-11.4508
いいわ	-11.4509
あげく	-11.4509
生れる	-11.4509
▁おお	-11.451
解る	-11.4511
跨	-11.4512
云われて	-11.4513
し難い	-11.4515
罪悪	-11.4515
を開けて	-11.4516
民族の	-11.4516
▁2008	-11.4517
山城	-11.4517
本陣	-11.4517
ケイ	-11.4518
を追う	-11.4518
やうです	-11.4518
向いた	-11.4518
ギリシア	-11.4519
コーヒー	-11.452
竈	-11.452
専門家	-11.452
ごみ	-11.452
のなかを	-11.4521
に過ぎなかった	-11.4523
34	-11.4523
親分さん	-11.4523
▁元来	-11.4524
往って	-11.4525
お金を	-11.4526
死去	-11.4527
番頭の	-11.4528
判った	-11.4528
平民	-11.4528
隨分	-11.4529
確かめ	-11.4529
代助	-11.4529
に押し	-11.453
刷	-11.4531
そればかり	-11.4532
三〇	-11.4532
お杉	-11.4533
ハリ	-11.4533
一定	-11.4533
云われ	-11.4534
まずい	-11.4534
ミス	-11.4534
ところだった	-11.4534
遺伝	-11.4534
かもしれぬ	-11.4534
なんだろう	-11.4534
そうでない	-11.4535
気候	-11.4535
幕府の	-11.4536
初の	-11.4537
これと	-11.4538
車は	-11.4541
駐	-11.4541
路傍	-11.4545
母屋	-11.4546
ですけれど	-11.4546
らねばならぬ	-11.4546
ひげ	-11.4547
娘たち	-11.4547
キロ	-11.4548
ますわ	-11.4549
time	-11.4549
心配する	-11.4549
種子	-11.4549
し始めた	-11.4549
明智探偵	-11.455
口実	-11.455
枝に	-11.455
あたりで	-11.4551
ることが出来る	-11.4551
南方	-11.4551
こう云って	-11.4555
倫理	-11.4556
村へ	-11.4559
靡	-11.4563
▁.........	-11.4564
利き	-11.4564
地下室	-11.4565
訳で	-11.4565
とめた	-11.4566
どうだい	-11.4567
金で	-11.4567
かかっていた	-11.4568
多し	-11.4568
方法は	-11.457
置かれ	-11.4571
通路	-11.4572
幾多の	-11.4572
ゆきました	-11.4572
歌い	-11.4572
気持は	-11.4573
それへ	-11.4573
▁2018	-11.4574
を越え	-11.4574
にわたって	-11.4577
48	-11.4577
石田	-11.4581
困難な	-11.4581
向うから	-11.4581
しまうと	-11.4582
當時	-11.4583
尻尾	-11.4583
出来ている	-11.4583
闇に	-11.4584
信長の	-11.4584
しからば	-11.4584
表に	-11.4587
永遠の	-11.4588
にとつては	-11.4588
んですって	-11.4588
年増	-11.4589
を挙げ	-11.4589
回転	-11.4592
松山	-11.4593
琵琶	-11.4593
恐縮	-11.4594
▁それより	-11.4594
始まる	-11.4596
贅沢	-11.4597
及ぶ	-11.4598
どか	-11.4598
簡単	-11.4599
夢想	-11.4599
芝生	-11.46
レーション	-11.46
金曜	-11.4601
少な	-11.4601
ながら云った	-11.4601
取られた	-11.4604
身辺	-11.4604
波が	-11.4605
境地	-11.4606
いますが	-11.4607
大坂	-11.4607
すまない	-11.4607
鱗	-11.4607
スン	-11.4608
紙片	-11.4608
慣れ	-11.4608
海老	-11.4608
隠れて	-11.4608
支配人	-11.4608
ヶ岳	-11.4609
騷ぎ	-11.4609
妃	-11.461
いのち	-11.4611
説明して	-11.4611
言わず	-11.4612
ように思う	-11.4612
座敷の	-11.4614
文句を	-11.4614
それによって	-11.4615
聴いた	-11.4616
目録	-11.4617
復興	-11.4618
上衣	-11.4619
合ふ	-11.4619
とかいふ	-11.4619
につけ	-11.4619
鬢	-11.4622
申上げ	-11.4622
しまったのです	-11.4624
のようで	-11.4625
放して	-11.4625
首領	-11.4626
思想を	-11.4628
覆面	-11.4629
拜	-11.463
家屋	-11.463
お蔭で	-11.463
プレー	-11.4631
であることが	-11.4632
がごとく	-11.4634
遷	-11.4635
に興味	-11.4636
仏像	-11.4636
3,	-11.4636
四郎は	-11.4637
なるまい	-11.4638
カーテン	-11.4639
しげな	-11.4639
も同様	-11.464
トリック	-11.4641
乙女	-11.4642
を作った	-11.4645
ママ	-11.4645
かりに	-11.4645
一円	-11.4646
配置	-11.4648
休め	-11.4648
歓喜	-11.4649
見えず	-11.4649
この土地	-11.465
があるんだ	-11.4651
毀	-11.4652
附近の	-11.4653
説く	-11.4654
箇所	-11.4657
栄え	-11.4658
床の上に	-11.4659
作物	-11.4659
塔の	-11.4659
ロード	-11.4659
並み	-11.4661
派遣	-11.4662
迫る	-11.4663
起きる	-11.4663
均	-11.4663
一體	-11.4664
正確に	-11.4667
ごとき	-11.4668
僕と	-11.467
出立	-11.467
気がして	-11.4674
冷静	-11.4675
いただきたい	-11.4676
ことにしよう	-11.4677
羨	-11.4677
乗った	-11.4678
來ました	-11.4679
忘れる	-11.4679
痛く	-11.4679
を起す	-11.4684
返辞	-11.4687
降りる	-11.4687
いるもの	-11.4688
尽して	-11.469
陀	-11.469
ガラ	-11.4691
毛利	-11.4692
老女	-11.4692
ell	-11.4693
▁2007	-11.4693
困って	-11.4693
出口	-11.4694
だんな	-11.4695
兇	-11.4695
じみた	-11.4696
裡	-11.4696
髄	-11.4696
椀	-11.4696
場所を	-11.4697
活字	-11.4698
ちま	-11.4698
ラク	-11.47
\	-11.4703
厩	-11.4704
エネルギー	-11.4704
註文	-11.4705
しようという	-11.4705
まとめ	-11.4707
なんぞは	-11.4707
その声	-11.4708
▁結局	-11.4708
こく	-11.4709
受取	-11.471
棲	-11.4711
汚れ	-11.4712
ほの	-11.4712
明けて	-11.4713
二本の	-11.4714
ぬけて	-11.4715
福岡	-11.4716
ております	-11.4717
すがり	-11.4717
朴	-11.4717
享	-11.4718
ge	-11.4718
占め	-11.4721
査	-11.4724
発足	-11.4724
えい	-11.4725
作つた	-11.4726
疵	-11.4726
三十日	-11.4726
寂しく	-11.4728
うず	-11.473
お豊	-11.4731
なければいけない	-11.4731
0||	-11.4732
築地	-11.4732
▁......(	-11.4732
与へ	-11.4733
昂	-11.4734
板を	-11.4735
酒が	-11.4735
出したのは	-11.4736
るぞ	-11.4736
の仕業	-11.4737
左膳	-11.4738
羽根	-11.4738
一例	-11.4739
らないで	-11.4739
かれている	-11.474
拍手	-11.4742
col	-11.4742
半島	-11.4742
コート	-11.4743
5,	-11.4743
行こうと	-11.4744
ーッと	-11.4744
二十七	-11.4744
少女は	-11.4748
▁2019	-11.4748
もう一人	-11.4749
べきである	-11.4749
見込み	-11.4751
たべ	-11.4753
大変だ	-11.4753
するのも	-11.4754
流れている	-11.4755
事件を	-11.4756
藤吉郎	-11.4756
襲撃	-11.4756
75	-11.4757
というものの	-11.4757
るべく	-11.4759
限界	-11.4759
人柄	-11.476
を建て	-11.4761
客を	-11.4762
刊行	-11.4762
めている	-11.4762
われわれが	-11.4762
君子	-11.4763
ことが出来なかった	-11.4764
接触	-11.4765
次男	-11.4766
近頃は	-11.4767
熱情	-11.4767
製品	-11.4768
人間だ	-11.477
翔	-11.4771
抗議	-11.4771
信じている	-11.4773
亡き	-11.4774
ーム	-11.4774
果てた	-11.4775
▁私はこの	-11.4775
云えない	-11.4777
んでございます	-11.4778
かの女は	-11.4779
荒い	-11.4779
騎士	-11.4781
判明	-11.4781
判然	-11.4781
ワル	-11.4782
と思ふと	-11.4783
でありまして	-11.4783
その言葉	-11.4785
燃える	-11.4786
やるから	-11.4786
の顔を見て	-11.4788
▁by	-11.4788
蘭軒	-11.4788
つていふ	-11.479
にあたって	-11.4791
おまえの	-11.4791
之が	-11.4792
▁import	-11.4793
縋	-11.4794
私にも	-11.4794
!......	-11.4795
尻を	-11.4795
せんとする	-11.4795
たとき	-11.4795
障子の	-11.4797
ためである	-11.4797
いるのであった	-11.4797
前進	-11.4799
農夫	-11.48
ってある	-11.4802
公は	-11.4804
間違え	-11.4804
靴を	-11.4804
拔け	-11.4805
橋本	-11.4806
三人が	-11.4807
ないわ	-11.4807
感慨	-11.4809
呻	-11.4809
柴田	-11.4809
物置	-11.4812
ばい	-11.4812
叔母さん	-11.4813
と信じ	-11.4813
行われている	-11.4813
陥	-11.4813
結成	-11.4815
設け	-11.4816
皇子	-11.4816
爆弾	-11.4817
弾丸	-11.4817
に就任	-11.4817
豹一	-11.4818
かゞ	-11.4819
▁やっぱり	-11.482
車夫	-11.482
時節	-11.4824
1999	-11.4824
境界	-11.4824
飛び込んで	-11.4824
を覗いて	-11.4824
近世	-11.4825
変だ	-11.4825
現在は	-11.4825
切れた	-11.4826
病院の	-11.4827
乗客	-11.4827
のを感じた	-11.4827
大型	-11.4828
▁その間に	-11.4832
幻想	-11.4832
仮に	-11.4832
を見つけ	-11.4833
その場	-11.4836
ありゃ	-11.4837
そう思う	-11.4838
横顔	-11.4838
焼いて	-11.4838
ことになり	-11.4838
食ひ	-11.4839
深川	-11.4839
刈り	-11.4839
おかしな	-11.4841
並べた	-11.4841
辿り	-11.4842
違つて	-11.4842
銭を	-11.4843
つづける	-11.4844
するのに	-11.4845
塁	-11.4846
根柢	-11.4846
はげしい	-11.4846
知事	-11.4846
見つめ	-11.4847
の眼には	-11.4849
人達が	-11.4851
いまだに	-11.4851
を発表	-11.4851
與へ	-11.4852
後半	-11.4854
聲で	-11.4854
例は	-11.4854
せしむる	-11.4855
○	-11.4855
陽気	-11.4855
といへば	-11.4855
さまざまの	-11.4856
申候	-11.4857
俺を	-11.4858
ですもの	-11.4859
と謂	-11.4859
濡れて	-11.4859
執着	-11.486
かということ	-11.4861
班	-11.4861
も多い	-11.4864
は次第に	-11.4864
あす	-11.4865
刺し	-11.4866
敗北	-11.4866
逢う	-11.4867
退いて	-11.4867
時間は	-11.4868
キス	-11.4871
白き	-11.4872
單	-11.4873
何んと	-11.4873
ぬいて	-11.4873
學者	-11.4874
金銭	-11.4874
邸の	-11.4874
光秀	-11.4875
つけている	-11.4876
えッ	-11.4877
斜めに	-11.4877
並びに	-11.4877
見送り	-11.4878
何者か	-11.4879
お話を	-11.488
斜面	-11.4881
浮べ	-11.4881
詫び	-11.4881
歸る	-11.4882
尋ねる	-11.4882
楽曲	-11.4883
いますよ	-11.4883
あな	-11.4883
中川	-11.4885
しみじみと	-11.4887
▁まったく	-11.4888
おまえさん	-11.4888
ment	-11.4888
▁5,	-11.489
いるという	-11.489
推理	-11.4891
仕え	-11.4892
歓迎	-11.4892
整備	-11.4892
息子の	-11.4893
歯が	-11.4893
ようという	-11.4894
はいって来た	-11.4894
事件は	-11.4895
摂	-11.4895
音がして	-11.4897
人もある	-11.4899
考へてゐる	-11.4901
冴え	-11.4901
加え	-11.4902
至って	-11.4902
帆村は	-11.4902
眠っている	-11.4903
当てて	-11.4904
大久保	-11.4905
ひびき	-11.4905
ぁ	-11.4906
曝	-11.4906
んだけれど	-11.4906
を捨て	-11.4907
片隅	-11.491
すらも	-11.491
化物	-11.4911
心境	-11.4911
快楽	-11.4913
匠	-11.4913
左衛門は	-11.4914
なんでもない	-11.4914
人物が	-11.4915
盗賊	-11.4915
聞かせて	-11.4918
くらべ	-11.4918
▁find	-11.4919
系の	-11.492
敢	-11.492
包んだ	-11.4921
しはじめた	-11.4921
しまして	-11.4921
ことがあつた	-11.4921
意気地	-11.4923
課題	-11.4923
向けて	-11.4924
騒ぐ	-11.4924
たがいに	-11.4927
阿部	-11.4927
わせる	-11.4929
ニューヨーク	-11.4929
絃	-11.4929
蟲	-11.4929
貨	-11.4929
金色の	-11.493
実家	-11.493
の命令	-11.4931
冷や	-11.4931
繰り返して	-11.4931
を叩いて	-11.4932
含	-11.4935
悦び	-11.4936
廟	-11.4937
ぞっと	-11.4937
しそうな	-11.4938
響いた	-11.4938
嗅ぎ	-11.4939
ただ一人	-11.4941
適用	-11.4941
しているのは	-11.4942
紫色	-11.4942
致す	-11.4943
の記事	-11.4944
筋肉	-11.4944
挟	-11.4945
不機嫌	-11.4945
各国	-11.4945
江戸時代	-11.4946
平気	-11.4948
を見せる	-11.4949
ヴェル	-11.4949
知られる	-11.495
といふことが	-11.4951
捜索	-11.4952
コーナー	-11.4953
▁代助は	-11.4954
喜劇	-11.4956
をかく	-11.4956
附けて	-11.4957
消息	-11.4958
永久	-11.4958
わしも	-11.4958
ッカ	-11.4958
をつくり	-11.496
鑑賞	-11.4961
末に	-11.4963
援	-11.4963
嫁に	-11.4966
三吉	-11.4966
実感	-11.4967
皮肉な	-11.4967
どちらも	-11.4967
分離	-11.4968
学ぶ	-11.4968
あつめ	-11.4969
ったように	-11.497
苦しむ	-11.497
云っている	-11.497
お手紙	-11.4971
じり	-11.4971
して置く	-11.4971
可愛らしい	-11.4971
なってきた	-11.4972
為め	-11.4974
挽	-11.4975
確認	-11.4975
監獄	-11.4975
も知らない	-11.4975
軌道	-11.4976
疑惑	-11.4976
故障	-11.4976
そうだろう	-11.4976
これまでの	-11.4977
役に立つ	-11.4978
の建物	-11.4978
到達	-11.4979
遭	-11.4979
何んな	-11.4981
くずれ	-11.4982
簾	-11.4982
倶楽部	-11.4982
廻す	-11.4983
紀州	-11.4983
▁[1,	-11.4983
かけました	-11.4983
十一年	-11.4984
青空	-11.4985
魅	-11.4985
宇治	-11.4986
授	-11.4986
▁v	-11.4987
やうになつて	-11.4987
募	-11.4988
▁このとき	-11.4988
遲	-11.499
セット	-11.499
さほど	-11.4991
思いながら	-11.4992
金庫	-11.4994
かへつて	-11.4994
働いた	-11.4996
突つ	-11.4997
▁何でも	-11.4998
誠実	-11.4999
封じ	-11.4999
さゝ	-11.5
詰めて	-11.5
ありませんか	-11.5001
之助が	-11.5001
はまったく	-11.5003
正午	-11.5004
ce	-11.5004
なれど	-11.5005
お駒	-11.5006
殿下	-11.5006
わかります	-11.5008
粗末な	-11.5008
断じて	-11.5009
に堪へ	-11.5009
ロケット	-11.5011
ムー	-11.5012
奉公人	-11.5012
ぐさ	-11.5012
状態に	-11.5013
〇〇	-11.5015
ゆつくり	-11.5015
諭	-11.5017
掛り	-11.5021
威力	-11.5023
大川	-11.5023
マダム	-11.5023
ダラ	-11.5024
もののように	-11.5024
虐	-11.5025
一人前	-11.5027
予は	-11.5029
ませる	-11.503
たつて	-11.503
イト	-11.5032
に近く	-11.5033
められ	-11.5033
しむる	-11.5033
しばらくして	-11.5036
やらない	-11.5036
ゴル	-11.5038
ねじ	-11.5039
兵は	-11.5039
片方	-11.5039
問ひ	-11.5044
一昨日	-11.5046
村長	-11.5047
大原	-11.5047
へ手を	-11.5048
が二つ	-11.505
世人	-11.5051
先生も	-11.5052
めかし	-11.5052
1998	-11.5052
障害	-11.5052
のそばへ	-11.5053
集合	-11.5054
場所で	-11.5057
)3	-11.5058
拘	-11.5058
小姓	-11.5058
ようなことは	-11.506
ばかな	-11.5061
あたま	-11.5061
どす	-11.5064
飲め	-11.5066
するであろう	-11.5066
マチ	-11.5066
貨幣	-11.5067
騰貴	-11.5067
太子	-11.5068
ることになった	-11.507
お前を	-11.5073
摘	-11.5073
にはならない	-11.5074
薩	-11.5074
派手な	-11.5074
可哀想	-11.5075
ジャック	-11.5076
ざめ	-11.5076
みたら	-11.5077
そうであった	-11.5077
換へ	-11.5077
の準備	-11.5078
青葉	-11.5078
覗いた	-11.5079
茲に	-11.5079
無意識	-11.508
悲しさ	-11.5081
▁最後に	-11.5082
よりほかに	-11.5082
出雲	-11.5083
恨	-11.5084
船で	-11.5088
だったのだ	-11.5088
一流の	-11.5089
美奈子	-11.509
經驗	-11.509
あまりにも	-11.5091
ズル	-11.5094
きもの	-11.5096
音響	-11.5098
抑	-11.5099
南京	-11.5101
きまった	-11.5101
信号	-11.5101
のは当然	-11.5101
時代は	-11.5103
の話は	-11.5103
あの人の	-11.5103
-2	-11.5105
いてくれ	-11.5105
壜	-11.5105
を取り出して	-11.5105
物質的	-11.5106
がわるい	-11.5107
に及んで	-11.5108
を行った	-11.5111
眼付	-11.5112
据ゑ	-11.5113
スピ	-11.5115
月曜	-11.5115
這入	-11.5117
なさいよ	-11.5117
ものではなく	-11.5118
積りで	-11.5118
負傷	-11.5119
を捨てて	-11.5122
出來た	-11.5123
位で	-11.5123
たまり	-11.5124
小生	-11.5125
辭	-11.5129
こな	-11.5129
十万	-11.5131
ここら	-11.5132
果物	-11.5133
仙太	-11.5133
化し	-11.5133
大空	-11.5134
幾人	-11.5135
山の中	-11.5136
一室	-11.5136
倦	-11.5136
漲	-11.5136
微かに	-11.5141
生えて	-11.5142
僕達	-11.5142
胤	-11.5144
おけば	-11.5145
を見つけて	-11.5145
そんな事は	-11.5145
電車の	-11.5145
稲荷	-11.5146
発音	-11.5146
を述べ	-11.5147
語っている	-11.5147
市立	-11.5147
言えない	-11.5148
に似ている	-11.5148
いるところ	-11.5149
中世	-11.515
次のような	-11.5151
頑固	-11.5152
してしまいました	-11.5153
花火	-11.5153
と彼女は	-11.5153
トップ	-11.5153
ヨー	-11.5154
よった	-11.5154
今夜の	-11.5154
ではある	-11.5155
漠	-11.5155
なのだから	-11.5156
▁私には	-11.5157
含め	-11.5158
伏せて	-11.516
恢復	-11.516
▁2021	-11.5161
将門	-11.5161
を追って	-11.5161
こち	-11.5161
眺めていた	-11.5161
石油	-11.5162
かゝつて	-11.5163
劇団	-11.5165
画面	-11.5165
いいや	-11.5166
教えた	-11.5167
という風に	-11.5167
馴れて	-11.5168
書いてあった	-11.5169
けふ	-11.5173
自動車が	-11.5173
右手に	-11.5176
ニン	-11.5176
旨を	-11.5178
ロウ	-11.5178
ミュ	-11.518
等々	-11.5182
おれたち	-11.5182
確立	-11.5182
うなずいて	-11.5183
と思つてゐる	-11.5183
かと思ふと	-11.5183
取次	-11.5184
に伴い	-11.5186
戸が	-11.5189
一生の	-11.519
輸送	-11.5191
四国	-11.5191
捜し	-11.5191
▁ほんとに	-11.5191
幼少	-11.5191
考慮	-11.5192
移住	-11.5192
ずき	-11.5192
へ来た	-11.5192
もあるまい	-11.5193
▁element	-11.5195
ボタン	-11.5195
エリ	-11.5199
立ち上った	-11.5199
補助	-11.5199
呼吸を	-11.52
食糧	-11.52
を除いて	-11.52
場所は	-11.52
拍子に	-11.5202
人民の	-11.5204
思わぬ	-11.5204
六つ	-11.5204
信玄	-11.5205
両人	-11.5206
our	-11.5206
すがた	-11.5206
相場	-11.5206
恥じ	-11.5206
ミニ	-11.5207
ちょっとした	-11.5208
絵を	-11.5209
人通り	-11.5209
主題	-11.5209
なきや	-11.521
させること	-11.5211
子爵	-11.5212
鳳	-11.5214
他国	-11.5215
長老	-11.5216
伸ば	-11.5217
の群れ	-11.5218
江戸に	-11.5218
判り	-11.5219
かせる	-11.5219
お友達	-11.5219
を食べ	-11.522
当った	-11.522
発見された	-11.5221
のみである	-11.5222
思ひ出した	-11.5225
int	-11.5225
ハア	-11.5225
目にも	-11.5226
の模様	-11.5227
老い	-11.5229
ねばならなかった	-11.5229
櫃	-11.523
事が出来	-11.5233
足らぬ	-11.5233
ブン	-11.5233
を見つめて	-11.5233
を示している	-11.5234
を示し	-11.5235
シーン	-11.5236
を得ず	-11.5236
周囲に	-11.5236
叔父の	-11.5236
仔	-11.5236
詰めた	-11.5237
来てくれた	-11.5238
お互いに	-11.5239
ことの出来ない	-11.5239
学校で	-11.5239
▁not	-11.5239
ant	-11.5239
三分	-11.524
女給	-11.5241
自動車の	-11.5241
天保	-11.5242
2005	-11.5242
伝えて	-11.5242
栄一	-11.5242
教える	-11.5243
つたのは	-11.5243
道化	-11.5245
text	-11.5245
学術	-11.5249
空しく	-11.5249
の距離	-11.5252
葵	-11.5254
ひつ	-11.5255
戦う	-11.5256
余が	-11.5258
はどうした	-11.5259
小娘	-11.5259
あたくし	-11.5262
引用	-11.5262
催促	-11.5262
虚偽	-11.5262
感情が	-11.5263
になりたい	-11.5267
経つ	-11.5267
待遇	-11.527
すみません	-11.527
娯楽	-11.5271
つぽ	-11.5272
をかける	-11.5273
幻影	-11.5274
門口	-11.5274
豊かな	-11.5275
の持主	-11.5275
朝飯	-11.5275
説話	-11.5275
つて來る	-11.5276
安く	-11.5277
原子	-11.5279
お綱	-11.528
甘え	-11.528
声を出して	-11.5281
つづいた	-11.5281
ぐつ	-11.5282
外国の	-11.5283
愉快な	-11.5285
しかたがない	-11.5287
征	-11.5288
しつかり	-11.5288
▁娘は	-11.5288
存じ	-11.5289
知れる	-11.529
ard	-11.5291
海賊	-11.5293
だったのである	-11.5294
暮して	-11.5294
親鸞	-11.5294
懇意	-11.5294
潜り	-11.5296
▁それほど	-11.5296
ざり	-11.5298
の端に	-11.5299
主体	-11.5302
しまっている	-11.5303
乃公	-11.5303
を加え	-11.5304
お前達	-11.5304
がかり	-11.5306
ph	-11.5308
の要求	-11.5308
択	-11.5308
★	-11.5309
一時は	-11.5309
を知らず	-11.5309
お母さま	-11.5309
部屋は	-11.531
トレ	-11.531
縁側に	-11.5312
障子を	-11.5312
それらは	-11.5313
いじめ	-11.5314
洛	-11.5315
尠	-11.5316
盜	-11.5317
されば	-11.5317
努めて	-11.5318
トンネル	-11.5318
書かれて	-11.5318
か知ら	-11.5318
するとき	-11.5318
どんなもの	-11.5319
シカ	-11.5319
皆が	-11.532
拂	-11.532
現実に	-11.5321
晴れて	-11.5321
詳	-11.5323
を解いて	-11.5324
鬚	-11.5325
獲物	-11.5325
スカ	-11.5325
徒歩	-11.5325
ウォー	-11.5326
▁むろん	-11.5327
知らねえ	-11.5327
強制	-11.5329
えん	-11.5329
したりして	-11.5329
送った	-11.5331
黒田	-11.5331
女房が	-11.5331
やむ	-11.5331
衰え	-11.5331
承諾	-11.5332
賦	-11.5332
世の中の	-11.5335
素質	-11.5337
ものでも	-11.5337
永遠	-11.5339
になろう	-11.5341
目下	-11.5341
▁しかして	-11.5341
ニイ	-11.5342
介抱	-11.5342
察して	-11.5342
たまらなく	-11.5343
きめた	-11.5343
ヨリ	-11.5344
善く	-11.5344
同人	-11.5345
いず	-11.5346
一匹の	-11.5346
浮か	-11.5346
恋を	-11.5347
データ	-11.5347
導入	-11.5348
パル	-11.5349
づかい	-11.535
余計な	-11.535
トランク	-11.5351
代理	-11.5352
世紀の	-11.5352
洩らし	-11.5353
かれらは	-11.5353
賭け	-11.5353
騷	-11.5354
口々に	-11.5355
を探して	-11.5355
エロ	-11.5356
あれだけ	-11.5356
これには	-11.5357
執筆	-11.5357
信心	-11.5357
はなれ	-11.5358
運用	-11.5358
富山	-11.5358
指導者	-11.536
ST	-11.536
を見出す	-11.536
次第で	-11.5363
初めに	-11.5364
1997	-11.5365
行なわれ	-11.5368
先刻から	-11.5369
三四郎	-11.537
噂を	-11.537
ではあるまいか	-11.5371
幾つも	-11.5371
店舗	-11.5372
太宰	-11.5372
と思わ	-11.5377
澤山	-11.5379
快活	-11.5381
離婚	-11.5381
侍女	-11.5381
をおいて	-11.5382
話を聞いて	-11.5383
しませんでした	-11.5383
叱り	-11.5384
りまして	-11.5384
を訪ねて	-11.5384
谷間	-11.5385
ことになつた	-11.5386
を送る	-11.5388
まゝに	-11.5388
漕ぎ	-11.539
古風な	-11.5392
溜め	-11.5392
渠は	-11.5393
せらるる	-11.5393
のやうなもの	-11.5394
煙突	-11.5394
森の中	-11.5395
裝	-11.5396
帰って来	-11.5397
所詮	-11.5398
と称して	-11.5398
いいでしょう	-11.5398
汚れた	-11.5399
と云うと	-11.54
の基礎	-11.54
暮れて	-11.5401
ならざる	-11.5402
ており	-11.5402
を弄	-11.5403
且	-11.5403
つらい	-11.5404
競走	-11.5405
かねる	-11.5411
国立	-11.5411
だったか	-11.5413
ダム	-11.5413
名高い	-11.5414
臓	-11.5414
と云いながら	-11.5414
ならべ	-11.5414
空虚	-11.5415
冷笑	-11.5418
句を	-11.542
泊って	-11.5421
おきたい	-11.5421
埋めて	-11.5422
乱れて	-11.5423
ゐるのである	-11.5423
つとめて	-11.5425
駿	-11.5426
つまらぬ	-11.5426
長官	-11.5426
あるとき	-11.5426
ci	-11.5427
米を	-11.5428
憐れ	-11.5428
行動を	-11.5428
浅間	-11.5429
36	-11.5429
夜叉	-11.5429
短篇	-11.543
かち	-11.543
眼つき	-11.5432
老母	-11.5433
前日	-11.5434
貰え	-11.5434
社員	-11.5436
ない限り	-11.5436
泳いで	-11.5437
愕	-11.5437
に見えて	-11.5439
稀に	-11.5439
年生	-11.544
たのです	-11.544
きわ	-11.5441
青白い	-11.5442
ページ	-11.5443
々しさ	-11.5444
育った	-11.5445
郷土	-11.5446
進出	-11.5446
お角	-11.5447
を思うと	-11.5447
云ひました	-11.5448
歌う	-11.5448
絶えて	-11.5449
厭だ	-11.5451
を呼んだ	-11.5452
遠慮なく	-11.5452
微塵	-11.5453
歩いて行った	-11.5453
十三年	-11.5455
▁彼はその	-11.5455
up	-11.5457
を引いた	-11.5457
貴下	-11.5457
態度は	-11.5459
鋳	-11.546
引退	-11.5461
フィー	-11.5461
返る	-11.5464
なさいまし	-11.5464
確かな	-11.5464
をしてゐた	-11.5464
ルパン	-11.5464
くりかえし	-11.5467
学び	-11.5468
かも知れん	-11.5468
坑	-11.5468
一方は	-11.5471
曇り	-11.5472
ものであって	-11.5473
様で	-11.5474
いったん	-11.5474
もいゝ	-11.5475
煮え	-11.5475
を取つて	-11.5477
片付け	-11.5477
結婚した	-11.5478
ことゝ	-11.5479
か知らないが	-11.5479
最期	-11.5482
ハネ	-11.5482
渉	-11.5483
決勝	-11.5483
三十五	-11.5484
なもので	-11.5484
を集め	-11.5484
▁elements	-11.5487
十五分	-11.5487
反応	-11.5488
ag	-11.5488
▁―――	-11.5489
給ふ	-11.5489
さび	-11.5489
武装	-11.549
なだめ	-11.549
知られて	-11.5491
ことができなかった	-11.5492
res	-11.5492
に至っては	-11.5492
はるか	-11.5493
と考えて	-11.5493
のまゝ	-11.5494
弱く	-11.5496
沿	-11.5497
睨んで	-11.5497
為す	-11.5498
斜	-11.5498
高度	-11.5498
っぺ	-11.5499
を出ると	-11.5501
東海道	-11.5502
隣室	-11.5502
ロフ	-11.5504
おこう	-11.5504
云いながら	-11.5505
メディア	-11.5505
千年	-11.5505
情緒	-11.5505
一つで	-11.5506
▁count	-11.5507
論じ	-11.5508
▁中には	-11.5508
せいぜい	-11.5508
を開き	-11.5509
鑑定	-11.551
幾らか	-11.5511
鳴いて	-11.5511
空港	-11.5512
関係を	-11.5513
徐々に	-11.5516
搭載	-11.5516
かくて	-11.5516
ところです	-11.5517
世界観	-11.5517
事です	-11.5517
登録	-11.5518
温度	-11.5519
心細い	-11.552
話している	-11.552
古くから	-11.5521
笑み	-11.5523
特定	-11.5523
スコ	-11.5523
境に	-11.5523
この問題	-11.5523
意味に於て	-11.5524
おもて	-11.5524
1996	-11.5525
大木	-11.5525
残りの	-11.5525
其後	-11.5529
するまで	-11.5531
詮議	-11.5532
込んで来た	-11.5534
十歳	-11.5535
当時は	-11.5535
尾根	-11.5535
と言えば	-11.5536
を抱えて	-11.5536
ゴール	-11.5536
悪党	-11.5538
じゃあねえ	-11.5538
透明	-11.5538
ような心持	-11.5538
も知らぬ	-11.5539
弱点	-11.554
生えた	-11.554
打撃	-11.554
伝六	-11.5541
きれい	-11.5541
個々の	-11.5542
はますます	-11.5543
唯一	-11.5543
下った	-11.5545
次郎が	-11.5547
分裂	-11.5548
二十六	-11.5548
奨励	-11.5548
ight	-11.5549
これこそ	-11.5549
というのです	-11.555
も見える	-11.5551
俺達	-11.5553
を求めた	-11.5553
橋の上	-11.5554
?――	-11.5554
有った	-11.5556
俳諧	-11.5556
同様の	-11.5559
難き	-11.5559
つかい	-11.5561
砕け	-11.5562
を遂げ	-11.5563
借りて	-11.5564
を描き	-11.5564
蔦	-11.5565
を動かす	-11.5565
吾が	-11.5565
継続	-11.5566
事が出来る	-11.5566
IN	-11.5567
みなさん	-11.5567
気力	-11.5568
何うか	-11.557
それを見	-11.557
になれる	-11.5572
▁2020	-11.5572
せられている	-11.5572
の中は	-11.5575
秋田	-11.5576
剃	-11.5578
麗な	-11.5579
観光	-11.558
蜜柑	-11.5581
はなれて	-11.5582
大きさ	-11.5584
持た	-11.5585
しぼ	-11.5585
いっこう	-11.5585
いらっしゃいます	-11.5586
ないでしょう	-11.5586
もなければ	-11.5587
かたく	-11.5587
杭	-11.5589
の報告	-11.5589
ておく	-11.5593
一味	-11.5594
不安な	-11.5594
聲が	-11.5595
亡く	-11.5595
をやめて	-11.5596
になるか	-11.5597
二郎は	-11.5597
模倣	-11.5597
かゝつた	-11.5597
にては	-11.5601
スパイ	-11.5601
灰色	-11.5601
二十分	-11.5602
といふので	-11.5604
自身は	-11.5605
抄	-11.5605
おのおの	-11.5605
連盟	-11.5606
あふれ	-11.5606
散る	-11.5607
ふっと	-11.5608
ーター	-11.5608
加わって	-11.561
出して来た	-11.5611
一通	-11.5611
私はもう	-11.5611
ことさえ	-11.5612
トルストイ	-11.5613
駿河	-11.5614
に就いては	-11.5614
オペラ	-11.5615
気楽	-11.5616
慰	-11.5616
鳴らし	-11.5618
かわりに	-11.562
搜	-11.5621
見ていると	-11.5622
わたしたちは	-11.5622
ちゃあ	-11.5625
に必要な	-11.5626
神社の	-11.5628
二十八日	-11.5629
眉を	-11.5629
漱石	-11.563
当たり	-11.563
みたいなもの	-11.5632
人足	-11.5632
考えてみると	-11.5633
強情	-11.5634
智恵	-11.5634
与える	-11.5635
の働き	-11.5636
なおも	-11.5636
昏	-11.5637
意図	-11.5637
その瞬間	-11.5637
どっか	-11.5638
超越	-11.5638
沈め	-11.564
燈籠	-11.5641
位置に	-11.5642
行われ	-11.5642
お別れ	-11.5643
ってくれ	-11.5645
齎	-11.5646
右へ	-11.5646
合つて	-11.5647
飯を食	-11.5648
ハハ	-11.565
を免れ	-11.5651
海へ	-11.5653
にしよう	-11.5654
させられる	-11.5654
杯を	-11.5655
1995	-11.5655
のままで	-11.5655
こまれた	-11.5656
なくなってしまった	-11.5656
厚く	-11.5657
与えられ	-11.5658
橋を渡	-11.5659
そういうもの	-11.5659
づら	-11.5661
碌	-11.5662
欲する	-11.5662
もんで	-11.5663
散々	-11.5663
秋山	-11.5664
読ま	-11.5664
かねた	-11.5665
不在	-11.5666
ぼくが	-11.5668
とみえ	-11.5668
運命の	-11.567
なにが	-11.567
ip	-11.567
狂気	-11.5671
39	-11.5671
ざまに	-11.5671
タア	-11.5671
だったろう	-11.5672
伊賀	-11.5673
でもなければ	-11.5673
病人の	-11.5673
な顔をして	-11.5673
何らの	-11.5674
ry	-11.5674
▁おまけに	-11.5674
縞の	-11.5675
あるのだ	-11.5675
兵馬は	-11.5677
もぐり	-11.5678
言える	-11.5678
並び	-11.5678
身体に	-11.5679
弛	-11.5679
俗に	-11.568
願ひ	-11.5682
奉仕	-11.5682
若い娘	-11.5682
發見	-11.5685
ことでも	-11.5686
をもっていた	-11.5687
推移	-11.5687
ズム	-11.5689
っていった	-11.5689
おゝ	-11.569
其方	-11.569
庭園	-11.5691
師範	-11.5692
これへ	-11.5692
一字	-11.5692
様子は	-11.5693
女も	-11.5694
文字を	-11.5694
映像	-11.5695
普請	-11.5695
戦車	-11.5696
相続	-11.5696
とでもいう	-11.5697
一方で	-11.5698
探して	-11.5699
済んで	-11.5699
ニヤ	-11.5701
主観的	-11.5701
汗を	-11.5702
老爺	-11.5702
短く	-11.5703
言われる	-11.5703
風習	-11.5703
着せ	-11.5703
姥	-11.5703
検討	-11.5705
だんだんに	-11.5705
高氏	-11.5705
開ける	-11.5705
恵まれ	-11.5705
年々	-11.5705
構わない	-11.5705
だと思ふ	-11.5706
むけ	-11.5707
を顧み	-11.5707
を待っていた	-11.5708
廊	-11.5708
眼と	-11.5709
レッド	-11.5709
向うへ	-11.5709
▁In	-11.571
十四年	-11.5712
坐る	-11.5712
軍勢	-11.5712
チー	-11.5713
眼前に	-11.5713
掛ける	-11.5717
したのか	-11.5717
闇の	-11.5717
となす	-11.5718
永遠に	-11.5718
して行った	-11.5718
怪談	-11.5719
飛騨	-11.572
郁	-11.572
名所	-11.5721
▁三四郎は	-11.5722
てしまふ	-11.5722
来るのを	-11.5724
No	-11.5724
着き	-11.5725
こちらは	-11.5725
片手を	-11.5726
so	-11.5727
とどめ	-11.5728
用意して	-11.573
寄席	-11.573
大騒ぎ	-11.573
牧場	-11.573
うれしく	-11.5731
吹雪	-11.5731
38	-11.5733
の形式	-11.5733
おじいさんは	-11.5734
洩	-11.5734
て居ります	-11.5734
余計	-11.5735
佇	-11.5736
何気なく	-11.5736
光って	-11.574
始まった	-11.574
んぢや	-11.5741
唸り	-11.5741
河野	-11.5744
訊ね	-11.5744
挫	-11.5744
切ら	-11.5745
おどろき	-11.5746
にやにや	-11.5747
TBS	-11.5747
しやう	-11.5748
落着いて	-11.5748
デモ	-11.5751
ヶ谷	-11.5752
どのような	-11.5752
うわ	-11.5752
オリジナル	-11.5753
のほとり	-11.5753
だと云う	-11.5754
を越して	-11.5755
何十	-11.5756
凝視	-11.5757
将来の	-11.5757
庄吉	-11.5757
戦死	-11.5758
人間的	-11.5758
ue	-11.5759
引揚げ	-11.5761
プラン	-11.5761
困つた	-11.5763
に頼んで	-11.5764
日発売	-11.5764
守護	-11.5765
常陸	-11.5765
末期	-11.5767
というほど	-11.5768
街を	-11.5769
松原	-11.5769
栖	-11.5769
片手で	-11.577
法人	-11.5771
姫は	-11.5771
そう云った	-11.5771
パリー	-11.5773
2022	-11.5773
ブロ	-11.5773
流れた	-11.5773
込むと	-11.5774
主人に	-11.5774
ou	-11.5776
▁それまで	-11.5776
追放	-11.5776
居つた	-11.5777
敏感	-11.5777
越す	-11.5777
早くから	-11.5778
子供ら	-11.5779
そしたら	-11.5779
戦慄	-11.5779
置かれた	-11.578
よく知っている	-11.5781
機体	-11.5781
ウェイ	-11.5787
増し	-11.5787
美女	-11.5788
扉が	-11.579
夜更け	-11.5791
おまへ	-11.5793
るのだった	-11.5794
面積	-11.5795
裏切	-11.5795
阿波	-11.5797
といいます	-11.5798
たのむ	-11.5799
けれ	-11.58
左衞門	-11.5801
?)	-11.5801
逝	-11.5802
支援	-11.5803
繰り返し	-11.5804
風呂敷	-11.5805
▁多分	-11.5805
東京から	-11.5806
大野	-11.5806
日の午後	-11.5806
四五日	-11.5807
お礼を	-11.5808
実力	-11.5808
学的	-11.5809
▁2022	-11.5809
抛り	-11.5809
そうですね	-11.5809
化する	-11.581
するつもり	-11.581
葱	-11.5811
収穫	-11.5811
まっすぐに	-11.5811
ばらばら	-11.5811
日本国	-11.5811
何日	-11.5812
儒	-11.5814
時分には	-11.5814
シャル	-11.5814
発作	-11.5814
筈です	-11.5817
往生	-11.5818
云わない	-11.5819
荻	-11.5819
ように云った	-11.5819
あらためて	-11.5819
匂ひ	-11.582
と云ふ事	-11.5821
あらわれて	-11.5823
逃げ出した	-11.5823
顔付	-11.5823
おられた	-11.5824
係り	-11.5825
故意	-11.5826
貴殿	-11.5826
を置く	-11.5826
▁value	-11.5826
に行つて	-11.5828
やります	-11.583
ベース	-11.5831
云へ	-11.5831
匕首	-11.5833
▁翌朝	-11.5833
あせ	-11.5835
楓	-11.5835
区間	-11.5836
崩壊	-11.5836
くたびれ	-11.5837
1980	-11.5837
明瞭	-11.5837
作法	-11.5837
主水	-11.5838
帰ってきた	-11.584
拾い	-11.584
はしません	-11.5841
妻君	-11.5842
ベートーヴェン	-11.5844
▁new	-11.5844
イギリスの	-11.5845
負けて	-11.5846
キャッ	-11.5847
33	-11.5848
手帳	-11.5849
ることにした	-11.5851
描く	-11.5851
捲き	-11.5854
の裡に	-11.5854
min	-11.5855
▁人間は	-11.5856
知られている	-11.5856
宮殿	-11.5856
無念	-11.5856
おさえ	-11.5857
彼方に	-11.5858
業者	-11.5858
を引っ	-11.5859
糊	-11.5861
与八	-11.5862
その実	-11.5862
隠れた	-11.5863
しがみ	-11.5863
といふのが	-11.5864
穴から	-11.5865
▁Ch	-11.5865
方だ	-11.5865
島へ	-11.5867
何時でも	-11.5867
▁だけど	-11.5867
距	-11.5868
求める	-11.5869
屠	-11.5869
ひょいと	-11.587
お母さんが	-11.5871
合理的	-11.5872
喜ば	-11.5873
述べる	-11.5873
溺れ	-11.5876
かなた	-11.5877
と申	-11.5877
みどり	-11.5877
東海	-11.5877
ギュ	-11.5878
抛	-11.5879
享楽	-11.5879
ョ	-11.588
名前は	-11.588
生憎	-11.588
出すこと	-11.588
不正	-11.5881
附いた	-11.5881
書物を	-11.5882
叫び声	-11.5883
半兵衛	-11.5883
ちん	-11.5885
エジプト	-11.5886
を含んで	-11.5886
index	-11.5886
下駄を	-11.5886
母も	-11.5886
ったい	-11.5888
しづ	-11.5891
婆や	-11.5893
しっかりと	-11.5893
舞台に	-11.5893
前夜	-11.5894
寂しさ	-11.5895
問題として	-11.5895
汝は	-11.5896
むやみに	-11.5896
みず	-11.5897
の言葉に	-11.5897
論理的	-11.5898
何んだ	-11.5898
感じない	-11.5899
錯	-11.59
append	-11.5902
落ちついて	-11.5903
調べた	-11.5903
林の中	-11.5903
聴く	-11.5903
じつと	-11.5906
あたい	-11.5907
美子	-11.5909
耐え	-11.5912
筆者	-11.5912
を起し	-11.5912
飢え	-11.5913
するものは	-11.5913
佐野	-11.5916
したがって	-11.5916
という男	-11.5918
やく	-11.5918
やめて	-11.5919
爲に	-11.5921
どういうわけ	-11.5921
去つた	-11.5922
ことのできない	-11.5923
支度を	-11.5924
▁主人は	-11.5925
▁my	-11.5926
man	-11.5927
汐	-11.5927
憤慨	-11.5928
拭き	-11.5929
気味の悪い	-11.5929
決心を	-11.593
貰つて	-11.5931
褐色	-11.5931
着て	-11.5931
ことのある	-11.5932
ソノ	-11.5933
探検	-11.5933
町内の	-11.5934
蹄	-11.5936
わかつた	-11.5936
曲げ	-11.5937
寝ていた	-11.5938
▁われは	-11.5939
刻々	-11.5939
背を	-11.5939
ギー	-11.5941
が行われた	-11.5941
近づけ	-11.5942
豆腐	-11.5942
ロッ	-11.5943
注ぎ	-11.5943
だのに	-11.5943
ハム	-11.5944
手数	-11.5944
あげよう	-11.5945
かあ	-11.5945
何百	-11.5946
フェル	-11.5947
小母さん	-11.5947
移籍	-11.5948
一方では	-11.5948
ればこそ	-11.5948
をつかんで	-11.595
毎月	-11.595
おかげで	-11.595
示した	-11.5951
を払って	-11.5951
何うした	-11.5951
スケ	-11.5952
▁2006	-11.5952
了ふ	-11.5952
独特の	-11.5953
来よう	-11.5954
社交	-11.5955
してやろう	-11.5955
お艶	-11.5955
外へ出	-11.5956
實は	-11.5956
お城	-11.5956
持参	-11.596
という事実	-11.596
寫	-11.5961
妄想	-11.5962
といいました	-11.5962
のなかから	-11.5962
がついている	-11.5963
一名	-11.5963
しておる	-11.5963
夢中になって	-11.5964
予感	-11.5965
眠って	-11.5965
地方に	-11.5966
折から	-11.5966
ゃあ	-11.5967
元々	-11.5968
及ばぬ	-11.597
嗅	-11.5971
くらいに	-11.5971
見たところ	-11.5974
越えて	-11.5974
揉み	-11.5975
右側	-11.5976
現實	-11.5976
‐	-11.5978
炬燵	-11.5978
忙しく	-11.5978
程度に	-11.5979
土人	-11.598
ほうがいい	-11.598
反對	-11.598
貴方が	-11.5981
37	-11.5981
に会う	-11.5982
提げ	-11.5983
玉子	-11.5984
纒	-11.5986
共産党	-11.5987
淨	-11.5987
-0	-11.5987
刺激	-11.5988
ビリ	-11.5988
ヒョ	-11.5989
離して	-11.5989
はずみ	-11.5991
スー	-11.5991
わく	-11.5991
合わない	-11.5991
若さ	-11.5993
を待って	-11.5993
こんでいた	-11.5994
を占めて	-11.5995
細川	-11.5995
佇んで	-11.5995
苦い	-11.5996
配信	-11.5996
一人一人	-11.5997
せむ	-11.6001
ーん	-11.6001
汲み	-11.6001
一遍	-11.6002
凧	-11.6003
ことであります	-11.6006
を持たない	-11.6006
いっても	-11.6007
ウェル	-11.6007
低い声で	-11.6008
というのに	-11.6009
北方	-11.6011
縣	-11.6011
一首	-11.6011
こんなもの	-11.6012
是は	-11.6014
脇に	-11.6015
香り	-11.6015
朝早く	-11.6015
學問	-11.6015
牧野	-11.6016
飛び出した	-11.6016
兄さんは	-11.6016
蒼白	-11.6017
カム	-11.6018
廻つて	-11.6019
帝の	-11.602
に沿うて	-11.602
争う	-11.6021
見えません	-11.6022
],	-11.6022
今井	-11.6023
夕日	-11.6023
次の間	-11.6023
駒井	-11.6024
をひっ	-11.6025
悔い	-11.6025
越して	-11.6026
この家の	-11.6027
勇士	-11.6028
この方	-11.6029
嗣	-11.6029
レオ	-11.6029
銀杏	-11.6029
飛んでもない	-11.6031
そう思った	-11.6032
とおっしゃる	-11.6032
ずにはいられなかった	-11.6034
を信じ	-11.6034
融	-11.6034
推察	-11.6035
認められ	-11.6035
困り	-11.6035
ことし	-11.6036
普及	-11.6038
ができて	-11.604
そうでしょう	-11.6041
熱心な	-11.6041
qu	-11.6043
の存在を	-11.6043
せまい	-11.6044
移った	-11.6044
感心した	-11.6044
袋を	-11.6045
つきり	-11.6046
ような感じ	-11.6046
即座に	-11.6047
局長	-11.6047
ヨウ	-11.6048
人達の	-11.6048
相模	-11.6049
呶鳴	-11.605
ばかし	-11.6051
こう云った	-11.6051
ようなものだ	-11.6051
片手	-11.6052
飛ばして	-11.6054
だと思います	-11.6054
させない	-11.6055
操縦	-11.6055
此方へ	-11.6055
本名	-11.6056
舟を	-11.6058
my	-11.6059
込んでいた	-11.606
お銀	-11.6061
こめて	-11.6062
アルプス	-11.6063
か知れない	-11.6063
藩主	-11.6065
またしても	-11.6067
普通に	-11.6067
いれて	-11.6068
丑松	-11.6068
兵器	-11.6069
しゅ	-11.607
定期	-11.607
槍を	-11.6071
りとした	-11.6073
燃えて	-11.6073
存外	-11.6073
飛躍	-11.6073
うちへ	-11.6073
を用い	-11.6075
宅へ	-11.6075
改善	-11.6076
ましても	-11.6076
開拓	-11.6077
二十三日	-11.6077
たうとう	-11.6078
▁X	-11.6078
に会った	-11.6079
一生を	-11.6079
になろうと	-11.6081
学院	-11.6082
人々を	-11.6082
逢わ	-11.6083
になりまして	-11.6083
所々	-11.6087
たっぷり	-11.6088
お考え	-11.6088
を生み	-11.6088
二十一日	-11.609
とは別	-11.609
川へ	-11.609
ないのに	-11.609
co	-11.6092
熱海	-11.6094
を眺めていた	-11.6095
ダメ	-11.6095
倫	-11.6096
本社	-11.6096
があるのです	-11.6097
することによって	-11.6097
人にも	-11.6097
愚か	-11.6098
文明の	-11.6098
させながら	-11.6099
可笑し	-11.6099
たのも	-11.61
憶	-11.61
という者	-11.6102
といっている	-11.6102
んぢやない	-11.6102
ac	-11.6103
凌	-11.6103
存じません	-11.6105
まざまざと	-11.6105
坊や	-11.6106
教訓	-11.6109
意思	-11.6109
扶	-11.611
あお	-11.611
行事	-11.6112
を待っている	-11.6113
案内して	-11.6114
骸骨	-11.6115
格闘	-11.6116
でしたか	-11.6116
マント	-11.6117
を選んで	-11.6117
囁いた	-11.6117
挙動	-11.6118
を眺めながら	-11.6118
と同じような	-11.6118
諸君は	-11.6119
峡	-11.612
番地	-11.612
四ツ	-11.612
夥しい	-11.6123
隠した	-11.6123
夜が明け	-11.6123
封筒	-11.6123
と仰	-11.6124
へ入れて	-11.6124
▁"""	-11.6126
すような	-11.6127
サッと	-11.6128
この山	-11.6128
糧	-11.6128
書店	-11.613
死んでしまった	-11.6131
済みません	-11.6132
おかしく	-11.6132
何んにも	-11.6133
恐ろし	-11.6134
手紙は	-11.6134
水準	-11.6136
歩行	-11.614
松林	-11.6141
日和	-11.6142
住んでいた	-11.6143
種族	-11.6143
ワッ	-11.6146
を申し	-11.6147
に任せて	-11.6148
きらい	-11.6152
モス	-11.6153
隣家	-11.6153
えず	-11.6154
新潟	-11.6154
ュ	-11.6155
生じて	-11.6155
梟	-11.6157
わけにも	-11.6157
経済学	-11.6159
多年	-11.6159
グレー	-11.6159
身長	-11.616
負けた	-11.6161
それ程	-11.6162
坐つて	-11.6164
私にとって	-11.6164
やぶ	-11.6167
あきれ	-11.617
マルクス主義	-11.617
随筆	-11.6171
以後の	-11.6173
プリン	-11.6173
に足る	-11.6173
半月	-11.6174
恍惚	-11.6174
ふか	-11.6175
囚人	-11.6175
ンダ	-11.6175
貴重な	-11.6175
中庭	-11.6175
すために	-11.6176
悪魔の	-11.6177
電話で	-11.6178
浮んだ	-11.618
膚	-11.6182
休む	-11.6182
肱	-11.6182
というのか	-11.6184
非人	-11.6185
の消息	-11.6185
▁その間	-11.6185
御承知	-11.6185
二間	-11.6187
ぞう	-11.6189
の意義	-11.6189
目付	-11.619
トス	-11.6192
が悪く	-11.6192
売る	-11.6192
しまおう	-11.6192
="	-11.6193
閉ぢ	-11.6193
演技	-11.6193
美しき	-11.6195
弟は	-11.6195
したところで	-11.6197
を避けて	-11.6198
500	-11.6198
は困る	-11.6199
どうでしょう	-11.62
以外には	-11.6202
防衛	-11.6202
可し	-11.6202
きさま	-11.6203
▁name	-11.6204
葡萄酒	-11.6205
をかぶって	-11.6206
弾き	-11.6206
わせた	-11.6206
叫びました	-11.6206
に依つて	-11.6207
を忘れた	-11.6208
千五百	-11.6209
の間は	-11.6209
弁証法	-11.6209
背広	-11.6209
民主主義	-11.6209
この男は	-11.621
次の日	-11.621
音がする	-11.621
剃刀	-11.6211
八九	-11.6211
を救う	-11.6212
みますと	-11.6214
をやっている	-11.6214
漸	-11.6214
と並んで	-11.6214
小供	-11.6215
城中	-11.6215
ang	-11.6215
ということです	-11.6216
燻	-11.6217
齒	-11.6217
いでいる	-11.6218
もんですから	-11.6219
世界中	-11.6221
精霊	-11.6224
たちと	-11.6226
鰻	-11.6226
ヒル	-11.6226
高野	-11.6226
から見て	-11.623
女達	-11.623
調子を	-11.6231
に入ると	-11.6231
来年	-11.6231
苦しめ	-11.6231
一面の	-11.6232
朽	-11.6232
却て	-11.6234
へ入った	-11.6235
憤り	-11.6237
飽くまで	-11.6237
ER	-11.6238
断言	-11.6239
自家	-11.624
車掌	-11.624
婆さんは	-11.624
の範囲	-11.624
つね	-11.624
ツル	-11.624
留めて	-11.6241
センチ	-11.6243
切支丹	-11.6243
箒	-11.6243
でもあろう	-11.6243
配達	-11.6244
速力	-11.6246
しまえ	-11.6247
の一種	-11.6248
口の中で	-11.625
考えても	-11.625
びっくり	-11.6251
話がある	-11.6251
お勝手	-11.6251
をつくって	-11.6251
眺める	-11.6252
深さ	-11.6252
年の春	-11.6254
どこからか	-11.6254
しゃく	-11.6254
代官	-11.6254
小型	-11.6254
注いで	-11.6255
挑戦	-11.6255
論ずる	-11.6255
めない	-11.6255
時勢	-11.6256
獨り	-11.6258
BS	-11.6259
羞	-11.626
寄せる	-11.626
いわれた	-11.626
收	-11.626
劃	-11.6261
してゐて	-11.6261
已に	-11.6261
▁□	-11.6262
豊富	-11.6262
静かで	-11.6262
頼り	-11.6262
に因	-11.6263
ご存じ	-11.6264
間柄	-11.6265
傍で	-11.6266
云わば	-11.6267
執念	-11.6267
歿	-11.6268
つもりだった	-11.6268
大通り	-11.6269
物凄い	-11.6269
諾	-11.6269
借りた	-11.6269
死骸を	-11.627
投げた	-11.627
湯気	-11.6271
情け	-11.6271
して来て	-11.6272
衛生	-11.6272
涙に	-11.6273
クサ	-11.6275
左側	-11.6275
垂れた	-11.6275
だろうと思って	-11.6275
正当	-11.6276
いくつ	-11.6276
なおさら	-11.6277
帰つた	-11.6278
担い	-11.6278
は大抵	-11.6278
投票	-11.6278
▁しかしそれは	-11.6279
義雄は	-11.6279
切れて	-11.6281
光った	-11.6281
久米	-11.6282
気がつくと	-11.6282
向かい	-11.6283
無関心	-11.6284
は単に	-11.6284
会堂	-11.6285
暖かい	-11.6285
を動かして	-11.6285
呼びかけた	-11.6287
思出	-11.6288
割合	-11.6289
病氣	-11.6289
金剛	-11.629
早朝	-11.629
することが出来る	-11.6292
現状	-11.6293
対岸	-11.6293
中島	-11.6293
[...]
